<pad>	0
</s>	0
<unk>	0
<block_body>	0
<block1>	0
</block1>	0
<block2>	0
</block2>	0
<block3>	0
</block3>	0
<method_name>	0
<code>	0
</code>	0
<technical_language>	0
</technical_language>	0
in	-0
er	-1
et	-2
on	-3
at	-4
);	-5
▁t	-6
en	-7
es	-8
▁=	-9
▁{	-10
al	-11
▁}	-12
or	-13
▁i	-14
le	-15
ion	-16
st	-17
▁(	-18
▁n	-19
re	-20
an	-21
get	-22
▁c	-23
▁th	-24
ar	-25
ing	-26
ur	-27
()	-28
▁f	-29
ro	-30
ce	-31
ent	-32
ct	-33
ul	-34
se	-35
St	-36
it	-37
▁if	-38
▁r	-39
am	-40
de	-41
▁p	-42
ed	-43
▁s	-44
is	-45
ut	-46
ic	-47
ring	-48
▁the	-49
ew	-50
pt	-51
▁a	-52
▁e	-53
▁in	-54
ull	-55
urn	-56
▁b	-57
eturn	-58
String	-59
il	-60
();	-61
▁m	-62
▁return	-63
▁null	-64
ch	-65
ate	-66
In	-67
▁"	-68
lo	-69
ist	-70
as	-71
ad	-72
▁new	-73
ag	-74
ri	-75
ue	-76
▁o	-77
pe	-78
ub	-79
ption	-80
Ex	-81
ame	-82
un	-83
▁+	-84
te	-85
ap	-86
ol	-87
ation	-88
id	-89
▁d	-90
om	-91
ect	-92
▁v	-93
ess	-94
ment	-95
▁w	-96
ab	-97
qu	-98
ception	-99
xt	-100
Con	-101
ck	-102
Exception	-103
Re	-104
("	-105
th	-106
el	-107
▁==	-108
▁String	-109
ode	-110
lic	-111
ile	-112
ot	-113
▁re	-114
ype	-115
▁for	-116
ra	-117
ig	-118
est	-119
int	-120
▁st	-121
and	-122
Name	-123
alue	-124
▁to	-125
▁0	-126
▁l	-127
List	-128
age	-129
im	-130
ject	-131
▁!	-132
up	-133
od	-134
ublic	-135
able	-136
ult	-137
inal	-138
ter	-139
row	-140
um	-141
set	-142
end	-143
())	-144
ry	-145
iz	-146
▁is	-147
▁int	-148
▁!=	-149
▁con	-150
Id	-151
ass	-152
per	-153
▁S	-154
ver	-155
ction	-156
▁this	-157
Pro	-158
Type	-159
em	-160
▁I	-161
oun	-162
der	-163
if	-164
bject	-165
En	-166
▁el	-167
().	-168
▁of	-169
us	-170
▁else	-171
))	-172
put	-173
all	-174
▁throw	-175
▁res	-176
▁get	-177
ve	-178
▁final	-179
ata	-180
lass	-181
ase	-182
public	-183
pl	-184
Ar	-185
Res	-186
our	-187
▁T	-188
atch	-189
ey	-190
");	-191
oc	-192
ers	-193
ext	-194
▁C	-195
());	-196
art	-197
▁h	-198
ath	-199
oo	-200
▁-	-201
▁g	-202
▁M	-203
▁<	-204
dex	-205
▁&	-206
stan	-207
▁pro	-208
eng	-209
vi	-210
ource	-211
os	-212
▁1	-213
ength	-214
ity	-215
ize	-216
▁lo	-217
add	-218
aram	-219
pon	-220
Object	-221
ay	-222
ray	-223
));	-224
lement	-225
To	-226
ser	-227
ff	-228
Value	-229
ort	-230
",	-231
▁and	-232
▁be	-233
IN	-234
con	-235
Bu	-236
eth	-237
ith	-238
(),	-239
text	-240
Ch	-241
ain	-242
ack	-243
File	-244
▁ex	-245
oid	-246
quest	-247
ir	-248
ER	-249
▁&&	-250
app	-251
to	-252
De	-253
orm	-254
ethod	-255
ime	-256
▁A	-257
[]	-258
ator	-259
▁ch	-260
lean	-261
▁:	-262
ang	-263
li	-264
▁void	-265
ount	-266
▁tr	-267
oolean	-268
eld	-269
ield	-270
ow	-271
pert	-272
als	-273
▁de	-274
alse	-275
▁P	-276
rom	-277
iv	-278
ON	-279
ror	-280
ition	-281
Set	-282
▁wh	-283
stance	-284
Com	-285
urr	-286
▁0;	-287
ument	-288
pr	-289
▁L	-290
essage	-291
ory	-292
ine	-293
length	-294
tt	-295
▁an	-296
act	-297
▁try	-298
).	-299
▁or	-300
Array	-301
fig	-302
ore	-303
▁j	-304
roup	-305
ind	-306
rib	-307
ire	-308
▁D	-309
fo	-310
vice	-311
By	-312
ger	-313
dd	-314
▁false	-315
tem	-316
▁catch	-317
cess	-318
ild	-319
▁>	-320
Node	-321
ure	-322
▁result	-323
ies	-324
sh	-325
▁stat	-326
Key	-327
▁com	-328
▁on	-329
++	-330
til	-331
▁as	-332
ader	-333
Ent	-334
ach	-335
ilder	-336
▁|	-337
urrent	-338
▁boolean	-339
ute	-340
quals	-341
oint	-342
aramet	-343
▁true	-344
Se	-345
▁.	-346
og	-347
lient	-348
Util	-349
▁value	-350
key	-351
res	-352
riv	-353
▁set	-354
Data	-355
ord	-356
Ser	-357
ace	-358
Map	-359
rit	-360
ponse	-361
av	-362
ong	-363
vent	-364
ession	-365
ream	-366
append	-367
bu	-368
ak	-369
ans	-370
Path	-371
▁(!	-372
ifi	-373
tain	-374
▁not	-375
Class	-376
mo	-377
▁se	-378
pro	-379
▁by	-380
out	-381
op	-382
▁List	-383
ly	-384
rivate	-385
ial	-386
reate	-387
ery	-388
▁case	-389
cted	-390
Index	-391
AT	-392
oub	-393
ener	-394
ouble	-395
ast	-396
▁Th	-397
ax	-398
eck	-399
ence	-400
▁static	-401
ive	-402
Element	-403
▁F	-404
par	-405
equals	-406
▁0)	-407
Col	-408
Request	-409
port	-410
igh	-411
Propert	-412
ound	-413
Builder	-414
val	-415
RE	-416
State	-417
▁||	-418
lection	-419
ber	-420
ID	-421
new	-422
▁with	-423
read	-424
ex	-425
use	-426
form	-427
this	-428
ill	-429
Context	-430
not	-431
ST	-432
▁throws	-433
fer	-434
▁method	-435
▁ar	-436
▁list	-437
fa	-438
cri	-439
ated	-440
gument	-441
Th	-442
tent	-443
▁from	-444
▁that	-445
ffer	-446
nect	-447
▁In	-448
private	-449
▁B	-450
leg	-451
ail	-452
▁it	-453
ken	-454
LE	-455
ll	-456
Un	-457
ip	-458
An	-459
▁N	-460
Info	-461
ust	-462
pec	-463
▁instance	-464
▁R	-465
yst	-466
ces	-467
▁log	-468
ues	-469
lock	-470
of	-471
ystem	-472
▁at	-473
Message	-474
size	-475
▁public	-476
Config	-477
Group	-478
Time	-479
++)	-480
arameter	-481
▁J	-482
▁((	-483
ign	-484
sion	-485
ight	-486
arget	-487
error	-488
▁bu	-489
▁H	-490
cl	-491
Att	-492
com	-493
Stream	-494
cal	-495
UR	-496
yn	-497
OR	-498
Of	-499
anag	-500
arsh	-501
EN	-502
ribute	-503
fault	-504
Qu	-505
▁Object	-506
ec	-507
iven	-508
▁name	-509
▁*	-510
ork	-511
legal	-512
arshall	-513
Response	-514
odel	-515
llegal	-516
pp	-517
];	-518
ash	-519
iew	-520
value	-521
ava	-522
verri	-523
▁'	-524
▁val	-525
Result	-526
Stat	-527
▁given	-528
AL	-529
▁O	-530
▁us	-531
name	-532
▁file	-533
ost	-534
ded	-535
▁2	-536
umn	-537
▁type	-538
pty	-539
reak	-540
umber	-541
Argument	-542
ames	-543
Entry	-544
verride	-545
▁can	-546
Val	-547
date	-548
anager	-549
Im	-550
tr	-551
ib	-552
Field	-553
ange	-554
▁out	-555
▁object	-556
sert	-557
▁key	-558
ary	-559
▁add	-560
class	-561
Item	-562
ache	-563
ule	-564
▁par	-565
ix	-566
▁ent	-567
▁Illegal	-568
▁break	-569
Service	-570
Er	-571
ilter	-572
▁data	-573
As	-574
red	-575
ask	-576
Count	-577
▁current	-578
Loc	-579
▁Array	-580
▁y	-581
▁instanceof	-582
ified	-583
00	-584
ponent	-585
▁x	-586
Error	-587
toString	-588
irst	-589
▁double	-590
low	-591
erm	-592
AR	-593
tern	-594
Override	-595
Property	-596
move	-597
ccess	-598
ts	-599
log	-600
ersion	-601
Event	-602
Manager	-603
teger	-604
nection	-605
getS	-606
ress	-607
rap	-608
pos	-609
▁_	-610
▁sh	-611
mpty	-612
Return	-613
uration	-614
ific	-615
bug	-616
▁are	-617
Tr	-618
Pos	-619
Utils	-620
TI	-621
ru	-622
Resource	-623
ME	-624
ink	-625
He	-626
cc	-627
▁G	-628
▁spec	-629
ree	-630
Text	-631
▁col	-632
▁while	-633
ING	-634
▁start	-635
ates	-636
next	-637
▁ser	-638
ob	-639
DE	-640
),	-641
▁up	-642
▁al	-643
For	-644
rite	-645
View	-646
sed	-647
>();	-648
▁un	-649
▁all	-650
enc	-651
fin	-652
ard	-653
Size	-654
OException	-655
▁index	-656
ge	-657
▁File	-658
▁?	-659
ner	-660
Buffer	-661
Add	-662
getP	-663
▁request	-664
";	-665
▁long	-666
Query	-667
index	-668
▁will	-669
With	-670
ple	-671
escri	-672
ler	-673
▁IllegalArgument	-674
let	-675
SE	-676
ference	-677
End	-678
Method	-679
▁sb	-680
▁context	-681
▁@	-682
yp	-683
final	-684
▁id	-685
Log	-686
▁field	-687
▁pre	-688
Status	-689
▁element	-690
Form	-691
pace	-692
ized	-693
Lo	-694
one	-695
getName	-696
pa	-697
▁ArrayList	-698
User	-699
query	-700
quire	-701
Out	-702
Not	-703
client	-704
tains	-705
irect	-706
(0	-707
Empty	-708
Var	-709
▁class	-710
uth	-711
Token	-712
Instance	-713
TE	-714
All	-715
Or	-716
Up	-717
und	-718
TY	-719
▁im	-720
ocument	-721
")	-722
vel	-723
Le	-724
actory	-725
sub	-726
putStream	-727
Get	-728
ings	-729
print	-730
ther	-731
ations	-732
arch	-733
idth	-734
ml	-735
tes	-736
Attribute	-737
Client	-738
Hand	-739
file	-740
abel	-741
ere	-742
son	-743
lect	-744
▁use	-745
ron	-746
ant	-747
▁node	-748
point	-749
create	-750
▁W	-751
oul	-752
Code	-753
ould	-754
Parameter	-755
AN	-756
has	-757
Met	-758
Null	-759
abled	-760
▁user	-761
ypes	-762
▁end	-763
Trans	-764
Returns	-765
cord	-766
Version	-767
▁create	-768
Par	-769
▁If	-770
loat	-771
ms	-772
ac	-773
ave	-774
AC	-775
vid	-776
Point	-777
mand	-778
At	-779
▁ro	-780
▁System	-781
RO	-782
▁check	-783
ite	-784
CO	-785
Model	-786
▁pos	-787
toc	-788
▁sub	-789
Content	-790
ature	-791
tocol	-792
"));	-793
Tra	-794
From	-795
Entity	-796
▁The	-797
[0	-798
type	-799
▁cont	-800
OG	-801
ffset	-802
ld	-803
gs	-804
▁Re	-805
ayer	-806
▁/	-807
ance	-808
SS	-809
Constan	-810
itor	-811
▁call	-812
quired	-813
On	-814
riter	-815
▁V	-816
unction	-817
ug	-818
▁assert	-819
Start	-820
▁path	-821
▁specified	-822
▁-1	-823
led	-824
Table	-825
AG	-826
▁resource	-827
"))	-828
start	-829
Sh	-830
Pre	-831
ribut	-832
▁propert	-833
▁do	-834
chem	-835
Ro	-836
Cont	-837
▁target	-838
▁This	-839
arams	-840
lose	-841
valid	-842
string	-843
rim	-844
Names	-845
▁values	-846
pression	-847
raph	-848
time	-849
own	-850
ptions	-851
▁default	-852
▁k	-853
isEmpty	-854
Pl	-855
current	-856
tainer	-857
▁1;	-858
Next	-859
co	-860
▁+=	-861
parator	-862
▁array	-863
▁Map	-864
iles	-865
ttp	-866
▁ext	-867
gist	-868
Action	-869
Connection	-870
Factory	-871
Marshall	-872
▁string	-873
tected	-874
▁byte	-875
les	-876
Format	-877
contains	-878
▁config	-879
▁E	-880
.");	-881
vider	-882
Line	-883
ension	-884
▁input	-885
arameters	-886
▁state	-887
▁has	-888
Descri	-889
Properties	-890
▁max	-891
ages	-892
>>	-893
▁>=	-894
action	-895
▁item	-896
ecut	-897
opy	-898
back	-899
▁sup	-900
list	-901
Tag	-902
Inter	-903
ft	-904
line	-905
iter	-906
getValue	-907
debug	-908
Be	-909
ackage	-910
PE	-911
lication	-912
Constants	-913
▁att	-914
▁IOException	-915
Int	-916
FI	-917
ert	-918
].	-919
▁entry	-920
▁ret	-921
ok	-922
odes	-923
And	-924
CE	-925
terator	-926
ptor	-927
▁query	-928
ible	-929
ION	-930
ifier	-931
ep	-932
Length	-933
▁char	-934
.0	-935
Column	-936
Child	-937
arn	-938
--	-939
URL	-940
▁le	-941
▁test	-942
▁first	-943
ual	-944
▁read	-945
Enabled	-946
pi	-947
▁pl	-948
▁java	-949
▁local	-950
getC	-951
peration	-952
Configuration	-953
▁count	-954
ud	-955
▁en	-956
ann	-957
Date	-958
ruct	-959
▁required	-960
Block	-961
ell	-962
▁U	-963
play	-964
▁Col	-965
Listener	-966
older	-967
remove	-968
▁match	-969
Al	-970
Check	-971
((	-972
Cache	-973
▁next	-974
▁cannot	-975
Number	-976
▁app	-977
()))	-978
stra	-979
▁he	-980
Source	-981
its	-982
load	-983
ML	-984
Char	-985
Stack	-986
du	-987
▁message	-988
Ed	-989
Dis	-990
Component	-991
ook	-992
lected	-993
null	-994
itial	-995
plate	-996
▁map	-997
Sub	-998
▁event	-999
▁0,	-1000
<?	-1001
ification	-1002
Marshaller	-1003
fix	-1004
▁group	-1005
▁order	-1006
▁source	-1007
1.	-1008
util	-1009
▁syn	-1010
cept	-1011
▁cl	-1012
▁trans	-1013
Byte	-1014
▁exist	-1015
tocolMarshaller	-1016
AME	-1017
pected	-1018
min	-1019
2.	-1020
place	-1021
Default	-1022
getA	-1023
▁form	-1024
Mod	-1025
ql	-1026
cur	-1027
▁Hash	-1028
ENT	-1029
URI	-1030
Case	-1031
olic	-1032
▁Integer	-1033
ayout	-1034
▁Mon	-1035
irectory	-1036
attern	-1037
▁child	-1038
ics	-1039
ps	-1040
Offset	-1041
mp	-1042
Local	-1043
ission	-1044
ributes	-1045
▁time	-1046
sign	-1047
ify	-1048
esc	-1049
ccount	-1050
▁last	-1051
▁X	-1052
getMessage	-1053
IND	-1054
Row	-1055
ative	-1056
data	-1057
▁we	-1058
Page	-1059
▁response	-1060
▁Set	-1061
▁act	-1062
protected	-1063
▁one	-1064
▁find	-1065
Filter	-1066
▁3	-1067
UN	-1068
▁LOG	-1069
AD	-1070
LI	-1071
(1	-1072
chema	-1073
ln	-1074
▁ne	-1075
ark	-1076
cond	-1077
()));	-1078
etw	-1079
▁1)	-1080
▁text	-1081
adata	-1082
finition	-1083
SON	-1084
col	-1085
annel	-1086
tra	-1087
▁size	-1088
Collection	-1089
Part	-1090
▁tem	-1091
chron	-1092
Valid	-1093
▁Mono	-1094
Values	-1095
info	-1096
▁dis	-1097
▁parent	-1098
>(	-1099
path	-1100
▁Class	-1101
UT	-1102
ateg	-1103
▁update	-1104
pre	-1105
ich	-1106
▁no	-1107
gn	-1108
Session	-1109
sing	-1110
▁logger	-1111
▁off	-1112
Integer	-1113
sg	-1114
AP	-1115
Handler	-1116
ices	-1117
iled	-1118
▁Pro	-1119
write	-1120
Image	-1121
▁error	-1122
▁ur	-1123
▁Com	-1124
anged	-1125
Sc	-1126
▁var	-1127
io	-1128
▁content	-1129
atab	-1130
ATE	-1131
ector	-1132
▁->	-1133
▁cal	-1134
pen	-1135
▁hand	-1136
Level	-1137
▁other	-1138
Link	-1139
▁any	-1140
▁num	-1141
rid	-1142
cket	-1143
Address	-1144
▁line	-1145
Test	-1146
ender	-1147
▁part	-1148
println	-1149
by	-1150
▁Log	-1151
bj	-1152
raw	-1153
\"	-1154
Call	-1155
ources	-1156
▁#	-1157
ags	-1158
▁{}	-1159
UE	-1160
<>();	-1161
▁row	-1162
Position	-1163
[0]	-1164
itch	-1165
▁found	-1166
true	-1167
untime	-1168
Ad	-1169
ia	-1170
ved	-1171
ool	-1172
QL	-1173
▁session	-1174
inder	-1175
roll	-1176
CH	-1177
Act	-1178
▁table	-1179
eature	-1180
CON	-1181
Types	-1182
▁number	-1183
++;	-1184
Read	-1185
Task	-1186
ync	-1187
ternal	-1188
char	-1189
map	-1190
▁process	-1191
App	-1192
notation	-1193
NO	-1194
code	-1195
ren	-1196
ends	-1197
Mode	-1198
Ref	-1199
plet	-1200
Sup	-1201
▁when	-1202
yle	-1203
olicy	-1204
Provider	-1205
▁contin	-1206
▁<=	-1207
ox	-1208
Dir	-1209
▁Math	-1210
Bytes	-1211
▁property	-1212
▁output	-1213
ide	-1214
word	-1215
Width	-1216
sum	-1217
LO	-1218
Del	-1219
vert	-1220
apt	-1221
ical	-1222
▁used	-1223
Reader	-1224
substring	-1225
format	-1226
▁ad	-1227
ake	-1228
ause	-1229
▁z	-1230
NAME	-1231
▁base	-1232
ody	-1233
air	-1234
▁service	-1235
..	-1236
elper	-1237
UL	-1238
Label	-1239
▁buffer	-1240
ments	-1241
result	-1242
▁sw	-1243
Base	-1244
parse	-1245
▁finally	-1246
Endpoint	-1247
Input	-1248
▁valid	-1249
he	-1250
▁sc	-1251
Access	-1252
▁length	-1253
▁min	-1254
▁continue	-1255
▁which	-1256
▁inter	-1257
Impl	-1258
▁Collection	-1259
Det	-1260
plit	-1261
mb	-1262
Target	-1263
rc	-1264
TION	-1265
ries	-1266
Record	-1267
SI	-1268
▁column	-1269
Reference	-1270
que	-1271
getM	-1272
scri	-1273
Location	-1274
TR	-1275
▁parameter	-1276
bs	-1277
uid	-1278
old	-1279
iable	-1280
quence	-1281
ous	-1282
▁synchron	-1283
System	-1284
ph	-1285
az	-1286
MP	-1287
check	-1288
▁should	-1289
Ident	-1290
▁StringBuilder	-1291
Tem	-1292
ivity	-1293
ported	-1294
rl	-1295
ply	-1296
Expression	-1297
Long	-1298
sor	-1299
▁float	-1300
close	-1301
rig	-1302
TYPE	-1303
apping	-1304
utt	-1305
Update	-1306
Tree	-1307
TH	-1308
Store	-1309
fter	-1310
KE	-1311
No	-1312
This	-1313
atabase	-1314
Server	-1315
ont	-1316
[1	-1317
indow	-1318
ample	-1319
marshall	-1320
user	-1321
Project	-1322
Comparator	-1323
gion	-1324
Document	-1325
▁mod	-1326
pare	-1327
cle	-1328
ern	-1329
uster	-1330
Container	-1331
getF	-1332
ities	-1333
Params	-1334
ility	-1335
▁Ch	-1336
node	-1337
lation	-1338
Descriptor	-1339
mit	-1340
▁filter	-1341
▁synchronized	-1342
▁only	-1343
utton	-1344
▁have	-1345
pan	-1346
loc	-1347
TER	-1348
Str	-1349
ization	-1350
entry	-1351
Header	-1352
ailed	-1353
▁old	-1354
▁ac	-1355
ish	-1356
Match	-1357
inding	-1358
▁token	-1359
Trace	-1360
▁block	-1361
Definition	-1362
po	-1363
Execut	-1364
oord	-1365
▁must	-1366
▁su	-1367
aw	-1368
Gener	-1369
AB	-1370
ermission	-1371
▁offset	-1372
ram	-1373
Is	-1374
Process	-1375
▁exception	-1376
▁run	-1377
tings	-1378
max	-1379
DI	-1380
etwork	-1381
Work	-1382
▁Exception	-1383
TO	-1384
VAL	-1385
qual	-1386
rag	-1387
Bound	-1388
▁gener	-1389
java	-1390
Url	-1391
face	-1392
sc	-1393
field	-1394
."));	-1395
Helper	-1396
Color	-1397
▁1);	-1398
]);	-1399
orage	-1400
▁4	-1401
Su	-1402
BIND	-1403
Ids	-1404
▁reader	-1405
otal	-1406
ugin	-1407
ally	-1408
▁loc	-1409
AX	-1410
UM	-1411
context	-1412
BINDING	-1413
scription	-1414
imple	-1415
▁then	-1416
essages	-1417
Fl	-1418
rol	-1419
ember	-1420
fore	-1421
('	-1422
omain	-1423
Spec	-1424
ATION	-1425
Auth	-1426
att	-1427
ialog	-1428
build	-1429
group	-1430
Height	-1431
▁switch	-1432
1,	-1433
Lock	-1434
lob	-1435
Root	-1436
▁returns	-1437
clu	-1438
Thread	-1439
mote	-1440
oin	-1441
undle	-1442
getString	-1443
match	-1444
rame	-1445
Per	-1446
▁argument	-1447
ByComparator	-1448
lot	-1449
Port	-1450
cale	-1451
▁met	-1452
▁Ser	-1453
pend	-1454
lete	-1455
mon	-1456
Vis	-1457
CT	-1458
ables	-1459
ency	-1460
gister	-1461
formation	-1462
The	-1463
▁into	-1464
▁",	-1465
Unit	-1466
▁view	-1467
be	-1468
▁enc	-1469
Num	-1470
▁work	-1471
cope	-1472
▁ap	-1473
Cre	-1474
amp	-1475
ED	-1476
last	-1477
▁builder	-1478
<?>	-1479
ick	-1480
acter	-1481
▁cre	-1482
element	-1483
Cl	-1484
Ext	-1485
InputStream	-1486
Pan	-1487
ences	-1488
▁client	-1489
▁does	-1490
▁point	-1491
item	-1492
getId	-1493
...	-1494
Changed	-1495
stat	-1496
IOException	-1497
izer	-1498
pres	-1499
ating	-1500
imit	-1501
(_	-1502
af	-1503
vail	-1504
ecute	-1505
Output	-1506
getClass	-1507
find	-1508
struct	-1509
▁model	-1510
(0,	-1511
▁connection	-1512
itle	-1513
Non	-1514
▁ed	-1515
ures	-1516
▁JSON	-1517
ination	-1518
VER	-1519
GroupName	-1520
posit	-1521
▁version	-1522
▁server	-1523
Writer	-1524
gress	-1525
Command	-1526
ou	-1527
Debug	-1528
ched	-1529
ors	-1530
Layout	-1531
▁code	-1532
getType	-1533
▁tra	-1534
Options	-1535
▁position	-1536
ss	-1537
dk	-1538
eb	-1539
getD	-1540
▁Node	-1541
▁names	-1542
PRO	-1543
▁status	-1544
hasNext	-1545
".	-1546
ee	-1547
▁No	-1548
ret	-1549
vok	-1550
Change	-1551
rint	-1552
▁root	-1553
▁component	-1554
request	-1555
ingle	-1556
▁action	-1557
▁attribute	-1558
▁format	-1559
gnore	-1560
ait	-1561
bo	-1562
▁super	-1563
AS	-1564
▁project	-1565
unk	-1566
lang	-1567
EX	-1568
Package	-1569
ape	-1570
Cal	-1571
▁stream	-1572
ines	-1573
vious	-1574
▁so	-1575
▁using	-1576
▁str	-1577
count	-1578
aders	-1579
assword	-1580
straint	-1581
pository	-1582
ustom	-1583
ails	-1584
▁existing	-1585
ise	-1586
Range	-1587
apter	-1588
Order	-1589
▁temp	-1590
vis	-1591
ome	-1592
mt	-1593
▁url	-1594
are	-1595
KEY	-1596
Dec	-1597
▁returned	-1598
▁per	-1599
FA	-1600
Metadata	-1601
ategory	-1602
iterator	-1603
order	-1604
target	-1605
xy	-1606
Enc	-1607
▁HashMap	-1608
ptional	-1609
▁remove	-1610
Found	-1611
false	-1612
Iterator	-1613
state	-1614
▁org	-1615
Selection	-1616
plement	-1617
Attributes	-1618
Loader	-1619
▁parameters	-1620
▁image	-1621
▁its	-1622
ie	-1623
Statement	-1624
byte	-1625
▁});	-1626
Hash	-1627
Bean	-1628
RI	-1629
ient	-1630
▁msg	-1631
PO	-1632
Graph	-1633
Job	-1634
Host	-1635
▁entity	-1636
2);	-1637
▁det	-1638
rix	-1639
▁marshall	-1640
indexOf	-1641
ush	-1642
▁St	-1643
oci	-1644
untimeException	-1645
fs	-1646
▁parse	-1647
gin	-1648
="	-1649
atrix	-1650
Last	-1651
Operation	-1652
▁was	-1653
Param	-1654
serv	-1655
getEndpoint	-1656
resource	-1657
dition	-1658
▁orig	-1659
▁task	-1660
Tim	-1661
▁expected	-1662
US	-1663
getB	-1664
with	-1665
\\	-1666
▁cache	-1667
curity	-1668
source	-1669
ached	-1670
imension	-1671
fl	-1672
ared	-1673
ERR	-1674
Run	-1675
▁cor	-1676
Args	-1677
Function	-1678
getInstance	-1679
oding	-1680
TAG	-1681
▁function	-1682
getKey	-1683
andom	-1684
▁write	-1685
parent	-1686
input	-1687
2,	-1688
▁Query	-1689
▁obj	-1690
warn	-1691
ename	-1692
Fields	-1693
ounter	-1694
vailable	-1695
Invalid	-1696
Inner	-1697
▁initial	-1698
edia	-1699
Template	-1700
FF	-1701
▁load	-1702
ymb	-1703
▁buf	-1704
()).	-1705
ules	-1706
Directory	-1707
BU	-1708
ys	-1709
▁Data	-1710
Rule	-1711
▁document	-1712
gment	-1713
resh	-1714
Gets	-1715
sWith	-1716
num	-1717
▁[	-1718
▁ref	-1719
config	-1720
ting	-1721
Policy	-1722
Equals	-1723
for	-1724
(0);	-1725
Create	-1726
▁cur	-1727
▁tag	-1728
If	-1729
ater	-1730
pect	-1731
▁bytes	-1732
▁info	-1733
▁where	-1734
mer	-1735
GER	-1736
lem	-1737
MI	-1738
Serv	-1739
Files	-1740
LA	-1741
PER	-1742
round	-1743
Double	-1744
▁1,	-1745
view	-1746
▁page	-1747
▁Con	-1748
enu	-1749
▁same	-1750
ulti	-1751
Search	-1752
▁dest	-1753
▁Http	-1754
stream	-1755
Meta	-1756
▁u	-1757
▁search	-1758
message	-1759
▁properties	-1760
lt	-1761
ready	-1762
</	-1763
method	-1764
▁command	-1765
object	-1766
000	-1767
assed	-1768
array	-1769
stract	-1770
▁len	-1771
cript	-1772
etch	-1773
][	-1774
Comp	-1775
test	-1776
getSub	-1777
duct	-1778
actor	-1779
values	-1780
▁accept	-1781
▁Type	-1782
soci	-1783
Max	-1784
gle	-1785
present	-1786
▁called	-1787
replace	-1788
▁q	-1789
▁-1;	-1790
endar	-1791
▁finder	-1792
str	-1793
LIN	-1794
clude	-1795
rie	-1796
Variable	-1797
olum	-1798
ored	-1799
VE	-1800
▁but	-1801
Build	-1802
▁port	-1803
umm	-1804
Elements	-1805
pli	-1806
Parameters	-1807
version	-1808
atas	-1809
▁contain	-1810
Ignore	-1811
],	-1812
Display	-1813
▁may	-1814
copy	-1815
illis	-1816
VALUE	-1817
pted	-1818
bers	-1819
roller	-1820
xml	-1821
▁-1)	-1822
Keys	-1823
Async	-1824
md	-1825
var	-1826
ersist	-1827
bstract	-1828
valueOf	-1829
SQL	-1830
▁Long	-1831
dis	-1832
▁you	-1833
base	-1834
cul	-1835
New	-1836
Channel	-1837
Resol	-1838
▁0);	-1839
▁args	-1840
▁An	-1841
SC	-1842
loy	-1843
rimary	-1844
charAt	-1845
ymbol	-1846
▁been	-1847
ower	-1848
▁configuration	-1849
Nodes	-1850
DO	-1851
▁auth	-1852
Decl	-1853
UP	-1854
▁iter	-1855
sup	-1856
ists	-1857
')	-1858
long	-1859
▁Return	-1860
ank	-1861
Description	-1862
▁Im	-1863
ht	-1864
Ver	-1865
Option	-1866
tx	-1867
cre	-1868
MO	-1869
propert	-1870
double	-1871
▁,	-1872
▁after	-1873
▁record	-1874
COL	-1875
from	-1876
uage	-1877
scriptionId	-1878
itive	-1879
estamp	-1880
Parser	-1881
Sets	-1882
iff	-1883
▁results	-1884
ERROR	-1885
▁URL	-1886
rowable	-1887
anges	-1888
▁passed	-1889
update	-1890
Warn	-1891
▁build	-1892
▁thread	-1893
Selected	-1894
▁Tr	-1895
Uri	-1896
ertific	-1897
ABLE	-1898
ragment	-1899
▁ind	-1900
entity	-1901
▁5	-1902
Style	-1903
Button	-1904
▁files	-1905
perator	-1906
Transaction	-1907
Annotation	-1908
imum	-1909
child	-1910
orld	-1911
▁provi	-1912
main	-1913
Pair	-1914
Logger	-1915
nown	-1916
Schema	-1917
oordin	-1918
▁fl	-1919
Prefix	-1920
cip	-1921
▁host	-1922
OutputStream	-1923
Parent	-1924
getProperty	-1925
DB	-1926
rapper	-1927
▁tmp	-1928
_.	-1929
mod	-1930
▁private	-1931
Bounds	-1932
trans	-1933
▁label	-1934
Sequence	-1935
PI	-1936
▁there	-1937
UID	-1938
First	-1939
VI	-1940
Control	-1941
▁each	-1942
Current	-1943
;.	-1944
ending	-1945
press	-1946
▁hash	-1947
other	-1948
AGE	-1949
Pointer	-1950
Handle	-1951
cent	-1952
Assign	-1953
▁fail	-1954
aint	-1955
ULT	-1956
Pattern	-1957
Enum	-1958
clear	-1959
ice	-1960
addAll	-1961
▁elements	-1962
Sign	-1963
very	-1964
ernal	-1965
stances	-1966
acket	-1967
reg	-1968
table	-1969
angle	-1970
▁job	-1971
reader	-1972
tex	-1973
kip	-1974
db	-1975
utable	-1976
▁As	-1977
startsWith	-1978
ET	-1979
return	-1980
▁handle	-1981
▁)	-1982
Pool	-1983
▁comp	-1984
▁inst	-1985
01	-1986
SO	-1987
');	-1988
▁Un	-1989
xis	-1990
getRe	-1991
▁"";	-1992
Box	-1993
ged	-1994
Min	-1995
▁fields	-1996
▁back	-1997
Permission	-1998
▁sign	-1999
ves	-2000
Device	-2001
ilename	-2002
entic	-2003
err	-2004
Mo	-2005
Settings	-2006
lector	-2007
▁");	-2008
ferences	-2009
event	-2010
").	-2011
ke	-2012
__	-2013
Delet	-2014
Account	-2015
json	-2016
buf	-2017
flow	-2018
space	-2019
trim	-2020
valu	-2021
Millis	-2022
▁operation	-2023
▁++	-2024
Que	-2025
IgnoreCase	-2026
plic	-2027
istance	-2028
▁Double	-2029
onitor	-2030
▁ag	-2031
wo	-2032
XML	-2033
reen	-2034
ormal	-2035
Resources	-2036
▁top	-2037
uture	-2038
▁open	-2039
▁Byte	-2040
ClientException	-2041
▁empty	-2042
Internal	-2043
LD	-2044
▁me	-2045
nap	-2046
fined	-2047
Failed	-2048
Back	-2049
SP	-2050
ataset	-2051
Mapping	-2052
▁location	-2053
Body	-2054
▁resol	-2055
Ag	-2056
▁("	-2057
ORD	-2058
▁execut	-2059
▁stack	-2060
▁params	-2061
▁Date	-2062
olume	-2063
emory	-2064
▁non	-2065
Json	-2066
▁selected	-2067
gr	-2068
token	-2069
Folder	-2070
Http	-2071
▁reference	-2072
▁options	-2073
▁Loc	-2074
<>(	-2075
▁already	-2076
Dialog	-2077
ether	-2078
63	-2079
Execution	-2080
▁copy	-2081
StackTrace	-2082
)))	-2083
irt	-2084
Us	-2085
FO	-2086
▁K	-2087
Extension	-2088
rs	-2089
Window	-2090
lease	-2091
issing	-2092
imal	-2093
ens	-2094
local	-2095
▁range	-2096
resent	-2097
SH	-2098
▁mo	-2099
Feature	-2100
▁writer	-2101
shot	-2102
anguage	-2103
ocket	-2104
Write	-2105
StateException	-2106
▁than	-2107
2)	-2108
▁implement	-2109
Identifier	-2110
▁vis	-2111
Buffered	-2112
lowed	-2113
▁tim	-2114
▁represent	-2115
stant	-2116
Metr	-2117
▁access	-2118
▁right	-2119
Cell	-2120
MS	-2121
Term	-2122
ertificate	-2123
over	-2124
Children	-2125
gistry	-2126
Def	-2127
)));	-2128
▁total	-2129
▁descri	-2130
64	-2131
azz	-2132
▁Field	-2133
part	-2134
)");	-2135
ning	-2136
▁Se	-2137
▁provided	-2138
Ind	-2139
Vector	-2140
ref	-2141
Unable	-2142
▁container	-2143
▁Boolean	-2144
position	-2145
▁left	-2146
ploy	-2147
▁Ex	-2148
pute	-2149
▁full	-2150
ux	-2151
IT	-2152
▁close	-2153
▁Iterator	-2154
▁Sdk	-2155
ract	-2156
ultip	-2157
equalsIgnoreCase	-2158
Module	-2159
split	-2160
filter	-2161
Top	-2162
▁assertEquals	-2163
met	-2164
width	-2165
lobal	-2166
Ret	-2167
▁".	-2168
ugh	-2169
uto	-2170
Java	-2171
▁HashSet	-2172
Boolean	-2173
▁header	-2174
bserv	-2175
ffect	-2176
Can	-2177
atal	-2178
Iter	-2179
Queue	-2180
Only	-2181
▁src	-2182
ixel	-2183
▁(_	-2184
eners	-2185
ground	-2186
▁whether	-2187
▁previous	-2188
Items	-2189
▁width	-2190
UI	-2191
Connect	-2192
getAttribute	-2193
Load	-2194
Panel	-2195
andid	-2196
▁over	-2197
▁ID	-2198
▁before	-2199
Obj	-2200
ArrayList	-2201
▁tree	-2202
.",	-2203
obj	-2204
▁display	-2205
PAR	-2206
▁directory	-2207
▁system	-2208
▁8	-2209
▁"'	-2210
▁bound	-2211
Editor	-2212
Creates	-2213
▁extends	-2214
▁date	-2215
tom	-2216
Role	-2217
inked	-2218
voke	-2219
first	-2220
redent	-2221
wner	-2222
LOG	-2223
amed	-2224
ear	-2225
▁sql	-2226
olute	-2227
▁LOGGER	-2228
▁original	-2229
Tool	-2230
▁Path	-2231
eat	-2232
Doc	-2233
napshot	-2234
DS	-2235
▁{}",	-2236
▁account	-2237
▁more	-2238
Results	-2239
▁0.0	-2240
▁rel	-2241
viron	-2242
chedule	-2243
▁&#	-2244
Activity	-2245
offset	-2246
▁localVar	-2247
containsKey	-2248
no	-2249
ority	-2250
inary	-2251
gor	-2252
getPar	-2253
irection	-2254
wer	-2255
structor	-2256
Adapter	-2257
url	-2258
▁db	-2259
content	-2260
gorith	-2261
▁occ	-2262
expected	-2263
ays	-2264
session	-2265
response	-2266
getO	-2267
Messages	-2268
ero	-2269
▁available	-2270
▁doc	-2271
':	-2272
plete	-2273
▁param	-2274
ique	-2275
df	-2276
▁contains	-2277
getR	-2278
▁ver	-2279
▁prefix	-2280
Binding	-2281
FAULT	-2282
▁convert	-2283
▁associ	-2284
_0	-2285
▁items	-2286
oogle	-2287
lip	-2288
▁need	-2289
NotFound	-2290
Edge	-2291
HT	-2292
do	-2293
▁10	-2294
▁Message	-2295
True	-2296
▁Collections	-2297
PRE	-2298
server	-2299
▁NO	-2300
ummary	-2301
aster	-2302
▁template	-2303
▁"/	-2304
Callback	-2305
delete	-2306
▁types	-2307
ions	-2308
Servlet	-2309
EC	-2310
Such	-2311
FIN	-2312
moved	-2313
▁uri	-2314
isDebug	-2315
column	-2316
vironment	-2317
▁2;	-2318
ability	-2319
ructure	-2320
SU	-2321
bsolute	-2322
Controller	-2323
wise	-2324
▁ident	-2325
sure	-2326
{}	-2327
ibility	-2328
msg	-2329
▁StringBuffer	-2330
Idx	-2331
▁level	-2332
▁&#63	-2333
ollow	-2334
Region	-2335
ONE	-2336
irtual	-2337
rupted	-2338
▁objects	-2339
Rel	-2340
buffer	-2341
store	-2342
▁IN	-2343
Find	-2344
Conver	-2345
execute	-2346
Track	-2347
▁pattern	-2348
Interface	-2349
Msg	-2350
gener	-2351
▁children	-2352
iver	-2353
Art	-2354
istory	-2355
eed	-2356
ward	-2357
▁Element	-2358
idget	-2359
ases	-2360
▁'"	-2361
Storage	-2362
OP	-2363
Initial	-2364
▁Resource	-2365
ier	-2366
empty	-2367
proto	-2368
MENT	-2369
▁exp	-2370
▁qu	-2371
▁Service	-2372
Desc	-2373
Headers	-2374
▁Thread	-2375
Wh	-2376
▁store	-2377
▁keys	-2378
orted	-2379
▁rece	-2380
application	-2381
▁expression	-2382
AM	-2383
Api	-2384
Constraint	-2385
▁height	-2386
▁init	-2387
gorithm	-2388
MAX	-2389
sible	-2390
logger	-2391
iables	-2392
▁delete	-2393
Left	-2394
aded	-2395
pc	-2396
▁6	-2397
▁api	-2398
▁information	-2399
1);	-2400
▁Char	-2401
getParent	-2402
▁replace	-2403
float	-2404
▁second	-2405
▁XML	-2406
Plugin	-2407
open	-2408
her	-2409
ived	-2410
Report	-2411
[1]	-2412
▁Buffered	-2413
▁2)	-2414
boolean	-2415
ifact	-2416
▁attr	-2417
[2	-2418
Mark	-2419
Frame	-2420
embers	-2421
▁attributes	-2422
can	-2423
._	-2424
▁Builder	-2425
Ph	-2426
▁Trans	-2427
▁based	-2428
inter	-2429
Network	-2430
Details	-2431
Are	-2432
▁graph	-2433
JSON	-2434
Visible	-2435
▁database	-2436
Nullable	-2437
org	-2438
Wrapper	-2439
▁actual	-2440
so	-2441
▁lock	-2442
Exp	-2443
▁upd	-2444
NotNull	-2445
STR	-2446
ruction	-2447
Man	-2448
ran	-2449
Warnings	-2450
queue	-2451
apped	-2452
Len	-2453
▁collection	-2454
▁created	-2455
getDefault	-2456
ced	-2457
Copy	-2458
▁Json	-2459
▁nodes	-2460
incip	-2461
ging	-2462
▁address	-2463
just	-2464
----	-2465
▁bo	-2466
comp	-2467
▁URI	-2468
▁ab	-2469
compare	-2470
▁channel	-2471
SER	-2472
Upd	-2473
Cap	-2474
▁SQL	-2475
printStackTrace	-2476
model	-2477
▁two	-2478
ALL	-2479
▁To	-2480
BO	-2481
ses	-2482
Security	-2483
Member	-2484
eom	-2485
Profile	-2486
};	-2487
▁change	-2488
▁json	-2489
isDebugEnabled	-2490
▁For	-2491
▁rule	-2492
prop	-2493
Scope	-2494
HE	-2495
▁0.	-2496
Suppress	-2497
iod	-2498
Condition	-2499
ZE	-2500
lish	-2501
Illegal	-2502
Lower	-2503
▁Null	-2504
su	-2505
Groups	-2506
Progress	-2507
IL	-2508
getT	-2509
AY	-2510
tag	-2511
block	-2512
NonNull	-2513
uple	-2514
▁register	-2515
SION	-2516
UMN	-2517
▁Linked	-2518
google	-2519
PointerException	-2520
▁cell	-2521
project	-2522
▁bit	-2523
eatures	-2524
afe	-2525
▁player	-2526
Transform	-2527
ibr	-2528
Icon	-2529
0,	-2530
▁listener	-2531
enter	-2532
process	-2533
▁look	-2534
▁print	-2535
itions	-2536
cs	-2537
▁Response	-2538
dir	-2539
Step	-2540
Bl	-2541
TP	-2542
icle	-2543
INT	-2544
posite	-2545
IG	-2546
voc	-2547
Application	-2548
Xml	-2549
hand	-2550
12	-2551
property	-2552
We	-2553
▁cluster	-2554
pth	-2555
redic	-2556
▁User	-2557
▁Java	-2558
Bar	-2559
Space	-2560
bservable	-2561
▁connect	-2562
Tags	-2563
:"	-2564
pond	-2565
Render	-2566
▁link	-2567
Timeout	-2568
greg	-2569
▁tool	-2570
Inst	-2571
tempt	-2572
▁package	-2573
Bundle	-2574
▁Local	-2575
▁Att	-2576
status	-2577
apache	-2578
▁tags	-2579
atalog	-2580
▁rs	-2581
exists	-2582
▁Point	-2583
LINK	-2584
aun	-2585
ns	-2586
trace	-2587
Remove	-2588
ason	-2589
Rect	-2590
Down	-2591
rect	-2592
SET	-2593
Open	-2594
IP	-2595
oice	-2596
▁>>	-2597
abs	-2598
Player	-2599
IC	-2600
default	-2601
etry	-2602
▁Key	-2603
Rest	-2604
Namespace	-2605
▁rest	-2606
▁Pl	-2607
▁mark	-2608
SuppressWarnings	-2609
▁clo	-2610
gram	-2611
TED	-2612
Generator	-2613
COLUMN	-2614
[])	-2615
▁Pre	-2616
WT	-2617
▁failed	-2618
Bit	-2619
Domain	-2620
▁application	-2621
getLocal	-2622
vision	-2623
root	-2624
andard	-2625
(1);	-2626
▁send	-2627
ten	-2628
ultiple	-2629
rop	-2630
names	-2631
Throwable	-2632
rigger	-2633
Expr	-2634
service	-2635
Extra	-2636
run	-2637
FOR	-2638
asic	-2639
2;	-2640
ose	-2641
▁<<	-2642
▁success	-2643
▁Z	-2644
▁added	-2645
▁schema	-2646
roid	-2647
yId	-2648
Ac	-2649
▁entries	-2650
ift	-2651
▁op	-2652
▁make	-2653
▁module	-2654
▁"\	-2655
Conf	-2656
▁Method	-2657
_1	-2658
getStatus	-2659
ution	-2660
▁It	-2661
▁device	-2662
▁InputStream	-2663
output	-2664
orig	-2665
call	-2666
Menu	-2667
LOC	-2668
erge	-2669
ling	-2670
notations	-2671
ges	-2672
AST	-2673
▁RE	-2674
▁my	-2675
attribute	-2676
Bund	-2677
▁associated	-2678
[0];	-2679
sets	-2680
▁prop	-2681
TIME	-2682
BUG	-2683
een	-2684
height	-2685
ACE	-2686
Area	-2687
host	-2688
rincip	-2689
▁matches	-2690
ifiers	-2691
maining	-2692
lear	-2693
▁Vector	-2694
getText	-2695
left	-2696
▁dif	-2697
Cur	-2698
▁report	-2699
▁Sh	-2700
Columns	-2701
▁term	-2702
sb	-2703
etween	-2704
anaged	-2705
inish	-2706
respond	-2707
Category	-2708
Proxy	-2709
location	-2710
Contact	-2711
ENTI	-2712
▁single	-2713
internal	-2714
andidate	-2715
sp	-2716
patch	-2717
▁View	-2718
wn	-2719
acity	-2720
ended	-2721
Metrics	-2722
▁perform	-2723
Decimal	-2724
Math	-2725
▁Context	-2726
▁Note	-2727
▁io	-2728
ampl	-2729
lick	-2730
])	-2731
Op	-2732
Summary	-2733
Serial	-2734
QU	-2735
Me	-2736
supported	-2737
',	-2738
aunch	-2739
Pane	-2740
oder	-2741
ipe	-2742
▁selection	-2743
atform	-2744
▁color	-2745
Checks	-2746
Clo	-2747
▁arg	-2748
entication	-2749
FILE	-2750
Active	-2751
args	-2752
0000	-2753
END	-2754
Entries	-2755
Single	-2756
ful	-2757
eo	-2758
▁Observable	-2759
▁stop	-2760
▁ph	-2761
ferred	-2762
SIZE	-2763
returns	-2764
ookie	-2765
10	-2766
void	-2767
sist	-2768
Eng	-2769
mail	-2770
Socket	-2771
OF	-2772
▁assign	-2773
▁metadata	-2774
src	-2775
Qual	-2776
resol	-2777
connect	-2778
FileName	-2779
plied	-2780
Rece	-2781
Edit	-2782
▁equal	-2783
Repository	-2784
ORT	-2785
ayload	-2786
Remote	-2787
1)	-2788
ocus	-2789
rough	-2790
oly	-2791
verse	-2792
aged	-2793
▁conf	-2794
inner	-2795
▁desc	-2796
SING	-2797
MIN	-2798
ured	-2799
api	-2800
itional	-2801
sRequest	-2802
▁dir	-2803
sql	-2804
iteral	-2805
NOT	-2806
river	-2807
▁(!(	-2808
Parse	-2809
"),	-2810
NE	-2811
top	-2812
sumer	-2813
ection	-2814
entrySet	-2815
▁Image	-2816
Segment	-2817
mission	-2818
toArray	-2819
parseInt	-2820
▁provider	-2821
▁Time	-2822
td	-2823
Grid	-2824
auth	-2825
▁them	-2826
setText	-2827
exception	-2828
getData	-2829
Bundler	-2830
ular	-2831
▁Tree	-2832
▁am	-2833
vocation	-2834
ottom	-2835
side	-2836
▁StringBundler	-2837
Database	-2838
arg	-2839
▁Big	-2840
▁};	-2841
1;	-2842
▁mode	-2843
edi	-2844
▁handler	-2845
▁Par	-2846
==	-2847
DF	-2848
▁insert	-2849
▁transaction	-2850
TimeMillis	-2851
▁dec	-2852
▁finderArgs	-2853
mark	-2854
(",	-2855
Word	-2856
▁assertTrue	-2857
Limit	-2858
Matrix	-2859
("\	-2860
▁man	-2861
▁put	-2862
Atom	-2863
Look	-2864
azon	-2865
ials	-2866
udio	-2867
ffix	-2868
ANCE	-2869
gt	-2870
Di	-2871
static	-2872
▁correspond	-2873
▁feature	-2874
Notification	-2875
▁region	-2876
▁Entity	-2877
▁xml	-2878
▁select	-2879
++]	-2880
known	-2881
▁active	-2882
down	-2883
ublish	-2884
cret	-2885
Uuid	-2886
▁Text	-2887
instance	-2888
▁pair	-2889
Web	-2890
oft	-2891
Kind	-2892
>)	-2893
right	-2894
lta	-2895
oordinate	-2896
ma	-2897
Fail	-2898
ites	-2899
▁they	-2900
validate	-2901
Ap	-2902
plex	-2903
▁ensure	-2904
Syn	-2905
Validation	-2906
Identity	-2907
ports	-2908
▁iterator	-2909
SINGLE	-2910
getPath	-2911
Objects	-2912
panyId	-2913
▁sum	-2914
len	-2915
DEBUG	-2916
tc	-2917
Ali	-2918
ranch	-2919
Stats	-2920
ted	-2921
▁split	-2922
DEFAULT	-2923
Core	-2924
▁follow	-2925
redicate	-2926
Use	-2927
▁character	-2928
IM	-2929
send	-2930
Cluster	-2931
DAT	-2932
full	-2933
bound	-2934
param	-2935
20	-2936
Intent	-2937
▁resources	-2938
Calendar	-2939
▁Or	-2940
Points	-2941
ruptedException	-2942
Title	-2943
▁Arrays	-2944
Short	-2945
Join	-2946
▁style	-2947
▁conn	-2948
Delete	-2949
▁methods	-2950
ade	-2951
ULL	-2952
ric	-2953
rincipal	-2954
▁acc	-2955
Monitor	-2956
▁protected	-2957
LIC	-2958
lay	-2959
Engine	-2960
Declar	-2961
BY	-2962
OM	-2963
ACK	-2964
▁fetch	-2965
▁validate	-2966
>()	-2967
component	-2968
▁Assert	-2969
unc	-2970
nable	-2971
ias	-2972
Layer	-2973
▁word	-2974
▁apply	-2975
▁curr	-2976
ince	-2977
ros	-2978
50	-2979
▁layout	-2980
▁factory	-2981
keySet	-2982
ribe	-2983
▁")	-2984
▁exists	-2985
idx	-2986
cause	-2987
OUT	-2988
eer	-2989
▁want	-2990
dest	-2991
Holder	-2992
Symbol	-2993
uri	-2994
ither	-2995
▁NoSuch	-2996
TypeName	-2997
Select	-2998
Draw	-2999
ES	-3000
Character	-3001
cer	-3002
aly	-3003
Depend	-3004
▁sequence	-3005
ycle	-3006
▁generate	-3007
ision	-3008
the	-3009
acters	-3010
▁short	-3011
▁API	-3012
ship	-3013
PAT	-3014
crement	-3015
▁step	-3016
Fragment	-3017
▁wait	-3018
Writ	-3019
Interval	-3020
ClassName	-3021
▁variable	-3022
temp	-3023
▁Optional	-3024
box	-3025
getRequest	-3026
eg	-3027
cing	-3028
ui	-3029
show	-3030
Product	-3031
▁defined	-3032
▁include	-3033
▁permission	-3034
▁Session	-3035
▁Rect	-3036
▁sm	-3037
▁App	-3038
riority	-3039
LowerCase	-3040
Font	-3041
tree	-3042
Finder	-3043
::	-3044
Chunk	-3045
▁main	-3046
ORDER	-3047
work	-3048
Resolver	-3049
ories	-3050
oll	-3051
▁network	-3052
▁Abstract	-3053
▁--	-3054
▁show	-3055
Password	-3056
also	-3057
WN	-3058
Zone	-3059
Dig	-3060
pha	-3061
sTo	-3062
▁DE	-3063
Relation	-3064
clud	-3065
eded	-3066
▁onChanged	-3067
asure	-3068
▁Item	-3069
Adds	-3070
▁Result	-3071
Second	-3072
bl	-3073
ely	-3074
rimitive	-3075
Dist	-3076
▁extension	-3077
Axis	-3078
▁Grid	-3079
Right	-3080
rieve	-3081
label	-3082
[][]	-3083
ested	-3084
▁specific	-3085
UUID	-3086
▁dist	-3087
ration	-3088
▁also	-3089
CR	-3090
▁prev	-3091
▁debug	-3092
page	-3093
init	-3094
▁1.0	-3095
Native	-3096
▁body	-3097
tax	-3098
tml	-3099
culate	-3100
getNode	-3101
ired	-3102
▁idx	-3103
▁append	-3104
getContext	-3105
Plan	-3106
▁Document	-3107
ersistence	-3108
bit	-3109
▁des	-3110
▁pop	-3111
ider	-3112
Timestamp	-3113
▁Inter	-3114
logy	-3115
▁callback	-3116
▁changed	-3117
▁Simple	-3118
Script	-3119
Float	-3120
▁Property	-3121
wh	-3122
merge	-3123
Post	-3124
FIX	-3125
Over	-3126
Scale	-3127
StringUtils	-3128
ARN	-3129
▁Use	-3130
Locale	-3131
▁override	-3132
ily	-3133
Dest	-3134
ployment	-3135
▁between	-3136
▁Cms	-3137
eometry	-3138
▁parser	-3139
checked	-3140
exp	-3141
ategy	-3142
▁StringUtils	-3143
▁Block	-3144
▁domain	-3145
OK	-3146
Simple	-3147
ele	-3148
▁annotation	-3149
nt	-3150
▁tc	-3151
▁clazz	-3152
getUser	-3153
ServiceMethod	-3154
▁unit	-3155
ene	-3156
aved	-3157
▁ReturnType	-3158
▁implementation	-3159
gments	-3160
▁encode	-3161
pose	-3162
duction	-3163
Site	-3164
eta	-3165
▁window	-3166
()),	-3167
Language	-3168
ferent	-3169
Future	-3170
▁statement	-3171
matcher	-3172
Encoding	-3173
▁calling	-3174
ty	-3175
▁depend	-3176
▁"]	-3177
ump	-3178
Anim	-3179
("/	-3180
eet	-3181
El	-3182
Partition	-3183
stack	-3184
getX	-3185
Processor	-3186
▁limit	-3187
Mapper	-3188
▁Value	-3189
ven	-3190
▁custom	-3191
Agent	-3192
Operator	-3193
ek	-3194
▁primary	-3195
▁Error	-3196
toLowerCase	-3197
▁1]	-3198
▁Al	-3199
isP	-3200
AND	-3201
Detail	-3202
▁Test	-3203
Media	-3204
▁draw	-3205
Registry	-3206
Sp	-3207
legate	-3208
▁password	-3209
▁http	-3210
▁mapping	-3211
bytes	-3212
image	-3213
▁folder	-3214
task	-3215
32	-3216
getResource	-3217
search	-3218
▁some	-3219
▁scale	-3220
cr	-3221
Attr	-3222
idd	-3223
curr	-3224
▁raw	-3225
itu	-3226
▁real	-3227
adi	-3228
select	-3229
▁within	-3230
PA	-3231
▁allow	-3232
Vertex	-3233
▁remote	-3234
▁namespace	-3235
▁down	-3236
▁Group	-3237
▁determ	-3238
▁save	-3239
▁Request	-3240
mutable	-3241
UND	-3242
▁transform	-3243
perations	-3244
ibrary	-3245
▁Index	-3246
Classes	-3247
EM	-3248
Rows	-3249
▁sp	-3250
▁direct	-3251
head	-3252
▁option	-3253
avax	-3254
izes	-3255
CP	-3256
Cms	-3257
▁plugin	-3258
cont	-3259
▁destination	-3260
▁through	-3261
Volume	-3262
cat	-3263
Could	-3264
▁queue	-3265
oot	-3266
▁member	-3267
ancel	-3268
vices	-3269
getTime	-3270
▁serial	-3271
▁internal	-3272
▁removed	-3273
▁high	-3274
attr	-3275
Any	-3276
▁render	-3277
▁locale	-3278
ker	-3279
▁bean	-3280
After	-3281
ym	-3282
[0].	-3283
ian	-3284
Batch	-3285
redentials	-3286
▁Sub	-3287
)).	-3288
uring	-3289
▁scope	-3290
▁supported	-3291
▁Not	-3292
Stop	-3293
(@	-3294
hs	-3295
▁arguments	-3296
builder	-3297
finder	-3298
change	-3299
▁best	-3300
Packet	-3301
▁findBy	-3302
ATTR	-3303
▁policy	-3304
UTF	-3305
ote	-3306
erson	-3307
command	-3308
net	-3309
tmp	-3310
agedResponse	-3311
▁under	-3312
Counter	-3313
cover	-3314
lf	-3315
▁className	-3316
ta	-3317
▁decl	-3318
endsWith	-3319
▁storage	-3320
ierarch	-3321
▁skip	-3322
CONT	-3323
blem	-3324
doc	-3325
▁condition	-3326
▁frame	-3327
Sw	-3328
Custom	-3329
▁example	-3330
cel	-3331
connection	-3332
sort	-3333
ServiceResponse	-3334
player	-3335
▁cursor	-3336
perand	-3337
--;	-3338
ores	-3339
cluded	-3340
draw	-3341
▁corresponding	-3342
API	-3343
iler	-3344
▁Default	-3345
(1,	-3346
▁-=	-3347
ik	-3348
convert	-3349
ifest	-3350
More	-3351
▁generated	-3352
!");	-3353
hash	-3354
▁ign	-3355
APP	-3356
One	-3357
chive	-3358
Tab	-3359
▁|=	-3360
kg	-3361
▁execute	-3362
OL	-3363
▁post	-3364
Constant	-3365
Flow	-3366
▁possible	-3367
reshold	-3368
ynam	-3369
getCurrent	-3370
▁columns	-3371
sl	-3372
ASE	-3373
GET	-3374
▁ctx	-3375
▁writ	-3376
Arg	-3377
now	-3378
cessed	-3379
DATE	-3380
link	-3381
Temp	-3382
mount	-3383
FS	-3384
Abstract	-3385
covery	-3386
▁"2	-3387
▁Y	-3388
▁both	-3389
▁rows	-3390
cache	-3391
▁done	-3392
STATE	-3393
▁meta	-3394
initial	-3395
Environment	-3396
card	-3397
riteria	-3398
finderPath	-3399
peated	-3400
▁clear	-3401
QUE	-3402
CESS	-3403
▁'\	-3404
▁because	-3405
INDER	-3406
ATOR	-3407
FormatException	-3408
Flags	-3409
Paths	-3410
ins	-3411
▁contents	-3412
Usage	-3413
▁points	-3414
ock	-3415
(...	-3416
▁role	-3417
Scan	-3418
Full	-3419
arraycopy	-3420
▁timeout	-3421
istics	-3422
Utilities	-3423
VERSION	-3424
▁dialog	-3425
XT	-3426
▁pool	-3427
UNT	-3428
▁Table	-3429
▁otherwise	-3430
▁begin	-3431
ied	-3432
getAbsolute	-3433
onth	-3434
getG	-3435
▁track	-3436
Events	-3437
agement	-3438
History	-3439
ires	-3440
Complet	-3441
Information	-3442
moves	-3443
▁16	-3444
sm	-3445
cast	-3446
▁ordered	-3447
pared	-3448
▁definition	-3449
ving	-3450
LL	-3451
▁Gener	-3452
number	-3453
(3	-3454
intValue	-3455
ixed	-3456
MetaData	-3457
clus	-3458
job	-3459
▁such	-3460
PROPER	-3461
":	-3462
active	-3463
▁":	-3464
▁props	-3465
Cursor	-3466
▁reg	-3467
▁scan	-3468
▁ST	-3469
▁events	-3470
ds	-3471
COMP	-3472
▁description	-3473
Flag	-3474
SELE	-3475
Sync	-3476
Modified	-3477
Init	-3478
URE	-3479
IO	-3480
velo	-3481
chor	-3482
eration	-3483
Dimension	-3484
ayment	-3485
▁settings	-3486
Executor	-3487
Protocol	-3488
second	-3489
▁Action	-3490
ENTITY	-3491
11	-3492
reset	-3493
adding	-3494
merce	-3495
▁Attribute	-3496
▁\"	-3497
CODE	-3498
▁Token	-3499
▁Returns	-3500
IS	-3501
Missing	-3502
▁edge	-3503
ribution	-3504
▁partition	-3505
▁ns	-3506
rt	-3507
▁extra	-3508
Mask	-3509
▁Rectangle	-3510
▁ob	-3511
▁Number	-3512
▁filename	-3513
▁join	-3514
Db	-3515
▁descriptor	-3516
NS	-3517
original	-3518
▁bounds	-3519
MAT	-3520
ACTION	-3521
getY	-3522
GE	-3523
Structure	-3524
▁button	-3525
Instances	-3526
LASS	-3527
Cannot	-3528
▁notification	-3529
getChild	-3530
_0>	-3531
▁sort	-3532
Listeners	-3533
ART	-3534
make	-3535
URCE	-3536
Certificate	-3537
▁characters	-3538
▁Configuration	-3539
getContent	-3540
▁thrown	-3541
(...)");	-3542
iant	-3543
▁Order	-3544
▁cached	-3545
▁either	-3546
▁instances	-3547
level	-3548
▁chunk	-3549
▁Properties	-3550
Methods	-3551
register	-3552
▁present	-3553
getParameter	-3554
▁their	-3555
Converter	-3556
Upper	-3557
0;	-3558
▁following	-3559
▁manager	-3560
▁Web	-3561
Artifact	-3562
uplic	-3563
QName	-3564
utom	-3565
oop	-3566
▁control	-3567
ynamic	-3568
amples	-3569
rivile	-3570
uxUtil	-3571
http	-3572
HER	-3573
▁di	-3574
▁Form	-3575
Sql	-3576
Paint	-3577
plicit	-3578
ha	-3579
▁normal	-3580
cheme	-3581
Lines	-3582
Print	-3583
Route	-3584
Before	-3585
files	-3586
Comment	-3587
ventory	-3588
HO	-3589
used	-3590
Memory	-3591
▁pass	-3592
ives	-3593
Subject	-3594
▁Connection	-3595
▁fileName	-3596
▁On	-3597
▁Dis	-3598
▁being	-3599
▁Out	-3600
▁fire	-3601
▁"");	-3602
DATA	-3603
▁&#63;	-3604
▁delet	-3605
▁site	-3606
Chain	-3607
Commit	-3608
putAll	-3609
enant	-3610
getColumn	-3611
});	-3612
▁delta	-3613
▁compute	-3614
WS	-3615
▁calls	-3616
Tokens	-3617
ffic	-3618
▁matrix	-3619
ECT	-3620
selected	-3621
Props	-3622
ited	-3623
era	-3624
UB	-3625
▁different	-3626
▁groupId	-3627
▁sim	-3628
faces	-3629
▁tab	-3630
board	-3631
▁constraint	-3632
▁HT	-3633
Prop	-3634
MPTY	-3635
getInt	-3636
my	-3637
▁Sec	-3638
▁grid	-3639
bin	-3640
Lookup	-3641
CI	-3642
rypt	-3643
▁bundle	-3644
LEN	-3645
▁execution	-3646
▁bind	-3647
Weight	-3648
ood	-3649
TERN	-3650
▁messages	-3651
Success	-3652
axis	-3653
ilities	-3654
Multi	-3655
track	-3656
▁invalid	-3657
Rec	-3658
prefix	-3659
▁web	-3660
Real	-3661
parameter	-3662
OB	-3663
▁title	-3664
compareTo	-3665
18	-3666
▁could	-3667
▁opt	-3668
ierarchy	-3669
Signature	-3670
getWidth	-3671
STAT	-3672
CTION	-3673
matches	-3674
LOW	-3675
ignment	-3676
FINDER	-3677
▁changes	-3678
▁art	-3679
ensor	-3680
options	-3681
ctionary	-3682
clo	-3683
▁random	-3684
▁Color	-3685
Slot	-3686
(2	-3687
PL	-3688
▁allowed	-3689
▁queryPos	-3690
▁classes	-3691
>");	-3692
leep	-3693
▁multiple	-3694
▁matching	-3695
getL	-3696
COUNT	-3697
▁complet	-3698
▁space	-3699
ese	-3700
ClassLoader	-3701
▁endpoint	-3702
▁just	-3703
Red	-3704
▁resolve	-3705
Bits	-3706
getFile	-3707
▁stored	-3708
Split	-3709
Rate	-3710
orization	-3711
DTO	-3712
namespace	-3713
TEXT	-3714
Diff	-3715
30	-3716
CL	-3717
▁ByteArray	-3718
achment	-3719
▁sample	-3720
Declaration	-3721
▁Component	-3722
Selector	-3723
cp	-3724
cessary	-3725
=\"	-3726
Variables	-3727
ike	-3728
▁extract	-3729
container	-3730
GRO	-3731
encode	-3732
cor	-3733
WI	-3734
join	-3735
▁monitor	-3736
accept	-3737
HashMap	-3738
orter	-3739
▁Content	-3740
Widget	-3741
▁lower	-3742
▁100	-3743
ifies	-3744
▁LinkedList	-3745
VALID	-3746
▁profile	-3747
▁JSONObject	-3748
16	-3749
ross	-3750
Distance	-3751
▁Invalid	-3752
Perform	-3753
▁occur	-3754
▁cap	-3755
appings	-3756
ense	-3757
unchecked	-3758
▁now	-3759
coded	-3760
Failure	-3761
Scroll	-3762
▁Model	-3763
Auto	-3764
clone	-3765
Buf	-3766
▁Cal	-3767
paces	-3768
▁headers	-3769
ically	-3770
▁editor	-3771
req	-3772
common	-3773
▁without	-3774
JECT	-3775
getAbsolutePath	-3776
invoke	-3777
▁Graph	-3778
SOURCE	-3779
▁activity	-3780
▁cons	-3781
ault	-3782
ware	-3783
rip	-3784
▁Act	-3785
▁Le	-3786
alys	-3787
STRING	-3788
medi	-3789
OT	-3790
itude	-3791
▁"\"	-3792
▁maximum	-3793
(((	-3794
amily	-3795
akes	-3796
SSAGE	-3797
save	-3798
roker	-3799
▁NOTE	-3800
di	-3801
params	-3802
[3	-3803
▁ps	-3804
▁Event	-3805
separator	-3806
Accept	-3807
Blank	-3808
getMax	-3809
DD	-3810
▁dig	-3811
ws	-3812
External	-3813
USER	-3814
spec	-3815
▁batch	-3816
ALI	-3817
stop	-3818
Features	-3819
COM	-3820
Support	-3821
getSource	-3822
ToString	-3823
▁progress	-3824
IllegalArgument	-3825
Coord	-3826
properties	-3827
**	-3828
encies	-3829
getLength	-3830
▁encoding	-3831
▁clean	-3832
▁containing	-3833
56	-3834
▁["	-3835
Convert	-3836
section	-3837
INST	-3838
▁about	-3839
oriz	-3840
▁De	-3841
▁intent	-3842
atew	-3843
amera	-3844
VM	-3845
▁currently	-3846
▁Run	-3847
▁Call	-3848
onical	-3849
ead	-3850
eep	-3851
▁tokens	-3852
getHeight	-3853
SY	-3854
Factor	-3855
▁another	-3856
▁compare	-3857
Static	-3858
Sample	-3859
Import	-3860
Section	-3861
▁Fl	-3862
thing	-3863
Screen	-3864
Updates	-3865
Ins	-3866
▁reset	-3867
aterial	-3868
▁requested	-3869
newInstance	-3870
Sort	-3871
ao	-3872
LINE	-3873
chedul	-3874
▁Base	-3875
FT	-3876
look	-3877
Actions	-3878
▁2);	-3879
Snapshot	-3880
getObject	-3881
fos	-3882
55	-3883
▁lat	-3884
CS	-3885
▁relation	-3886
▁&#63;.	-3887
Move	-3888
LAY	-3889
tim	-3890
bar	-3891
24	-3892
READ	-3893
header	-3894
▁def	-3895
descri	-3896
otion	-3897
prec	-3898
▁uuid	-3899
▁SWT	-3900
uuid	-3901
[0]);	-3902
alysis	-3903
▁font	-3904
Strategy	-3905
aN	-3906
handle	-3907
▁dimension	-3908
wait	-3909
ASK	-3910
getFirst	-3911
record	-3912
isting	-3913
PROPERTY	-3914
Available	-3915
▁Auth	-3916
body	-3917
▁merge	-3918
template	-3919
▁updated	-3920
redential	-3921
getN	-3922
▁owner	-3923
▁representation	-3924
▁signature	-3925
▁req	-3926
ped	-3927
insert	-3928
Direct	-3929
adius	-3930
▁env	-3931
Mutable	-3932
graph	-3933
▁Mod	-3934
▁ele	-3935
▁";	-3936
PATH	-3937
▁commit	-3938
getResult	-3939
ServletRequest	-3940
Dataset	-3941
Used	-3942
fg	-3943
color	-3944
▁interface	-3945
Org	-3946
acy	-3947
HERE	-3948
title	-3949
▁SQLException	-3950
Bucket	-3951
▁dst	-3952
Services	-3953
Rules	-3954
exit	-3955
ELD	-3956
▁lines	-3957
Arguments	-3958
Alias	-3959
setAttribute	-3960
SA	-3961
mc	-3962
protobuf	-3963
▁identifier	-3964
▁evalu	-3965
rad	-3966
QUEST	-3967
swer	-3968
Off	-3969
Validator	-3970
Seq	-3971
▁needed	-3972
▁enabled	-3973
▁equals	-3974
PK	-3975
▁correct	-3976
getElement	-3977
oom	-3978
Fac	-3979
()];	-3980
core	-3981
aces	-3982
▁Tag	-3983
▁groups	-3984
▁proxy	-3985
▁lookup	-3986
opt	-3987
Supported	-3988
Annotations	-3989
Delta	-3990
getE	-3991
▁1000	-3992
Close	-3993
▁sent	-3994
Cor	-3995
▁notify	-3996
Rep	-3997
eric	-3998
▁segment	-3999
▁registered	-4000
▁qual	-4001
▁repository	-4002
▁counter	-4003
PC	-4004
less	-4005
access	-4006
DateTime	-4007
▁errors	-4008
▁Project	-4009
▁diff	-4010
web	-4011
conf	-4012
▁Access	-4013
sw	-4014
MODE	-4015
Score	-4016
▁Util	-4017
ById	-4018
ways	-4019
Errors	-4020
Ctx	-4021
atcher	-4022
("\\	-4023
▁weight	-4024
LIST	-4025
stanti	-4026
Total	-4027
Ip	-4028
REN	-4029
▁dataset	-4030
erial	-4031
Setting	-4032
hasMore	-4033
Amount	-4034
rice	-4035
Virtual	-4036
▁2,	-4037
SL	-4038
(0).	-4039
(4	-4040
Click	-4041
rel	-4042
▁icon	-4043
▁err	-4044
▁world	-4045
▁listeners	-4046
INFO	-4047
curs	-4048
getItem	-4049
▁getP	-4050
▁cmd	-4051
▁category	-4052
▁Task	-4053
IndexOf	-4054
Des	-4055
▁slot	-4056
umb	-4057
▁until	-4058
Span	-4059
▁Process	-4060
assert	-4061
getBlock	-4062
atio	-4063
▁place	-4064
AUT	-4065
getIn	-4066
▁tx	-4067
getH	-4068
▁additional	-4069
ually	-4070
Capacity	-4071
▁BufferedReader	-4072
SELECT	-4073
▁section	-4074
▁upper	-4075
lap	-4076
havi	-4077
resolve	-4078
Gen	-4079
ductionMode	-4080
MESSAGE	-4081
▁Api	-4082
ole	-4083
Wait	-4084
Sdk	-4085
SECON	-4086
we	-4087
▁MAX	-4088
tags	-4089
ORI	-4090
ELE	-4091
Algorithm	-4092
▁distance	-4093
▁DB	-4094
chemas	-4095
requ	-4096
CLASS	-4097
▁vector	-4098
Card	-4099
Shape	-4100
vlet	-4101
▁co	-4102
Jar	-4103
cts	-4104
go	-4105
▁Work	-4106
▁Float	-4107
▁move	-4108
Constructor	-4109
ateway	-4110
rest	-4111
TABLE	-4112
velope	-4113
Composite	-4114
setProperty	-4115
FinderCache	-4116
achine	-4117
extra	-4118
getStatusCode	-4119
0)	-4120
icros	-4121
limit	-4122
OS	-4123
▁layer	-4124
▁see	-4125
▁running	-4126
ifications	-4127
▁Enum	-4128
▁finish	-4129
Show	-4130
me	-4131
▁userId	-4132
uch	-4133
izable	-4134
types	-4135
ORY	-4136
ets	-4137
Marker	-4138
nextLink	-4139
LED	-4140
▁occurr	-4141
▁em	-4142
alyz	-4143
▁cs	-4144
ident	-4145
udit	-4146
▁Objects	-4147
abilities	-4148
BE	-4149
▁optional	-4150
Focus	-4151
▁indic	-4152
▁1];	-4153
riate	-4154
▁jar	-4155
RuntimeException	-4156
vas	-4157
▁pixel	-4158
range	-4159
setValue	-4160
▁We	-4161
▁cause	-4162
plier	-4163
apply	-4164
AsString	-4165
bind	-4166
States	-4167
▁matcher	-4168
Save	-4169
Renderer	-4170
▁product	-4171
cell	-4172
▁subject	-4173
Orig	-4174
▁12	-4175
▁(((	-4176
asList	-4177
olyg	-4178
inst	-4179
EXT	-4180
▁bl	-4181
utdown	-4182
▁Throwable	-4183
short	-4184
Period	-4185
▁security	-4186
roy	-4187
Series	-4188
SD	-4189
FL	-4190
Tick	-4191
propriate	-4192
engine	-4193
ula	-4194
Admin	-4195
▁invok	-4196
▁rules	-4197
(-	-4198
ulate	-4199
WARN	-4200
Separator	-4201
PREFIX	-4202
▁supplied	-4203
FINE	-4204
Pop	-4205
▁State	-4206
RED	-4207
0.	-4208
agn	-4209
mar	-4210
Reg	-4211
▁""	-4212
oordinates	-4213
arm	-4214
Tracker	-4215
ackages	-4216
urity	-4217
ideo	-4218
Proto	-4219
ench	-4220
classes	-4221
Exists	-4222
Tests	-4223
Called	-4224
▁script	-4225
▁doesn	-4226
mediate	-4227
stmt	-4228
CHAR	-4229
channel	-4230
Evalu	-4231
Tuple	-4232
▁parts	-4233
FIG	-4234
Members	-4235
▁rec	-4236
OrBuilder	-4237
VICE	-4238
=");	-4239
ooth	-4240
anization	-4241
3.	-4242
StartElement	-4243
Hint	-4244
ForValue	-4245
ByteArray	-4246
hip	-4247
▁constructor	-4248
HEAD	-4249
Insert	-4250
DN	-4251
Tile	-4252
Duration	-4253
▁Status	-4254
address	-4255
className	-4256
--------	-4257
found	-4258
OW	-4259
▁UI	-4260
TIVE	-4261
NONE	-4262
icrosoft	-4263
ids	-4264
Required	-4265
PUT	-4266
▁Expression	-4267
Owner	-4268
olygon	-4269
gistration	-4270
▁trace	-4271
▁appropriate	-4272
▁during	-4273
Equal	-4274
▁Pattern	-4275
▁missing	-4276
rade	-4277
[1];	-4278
clazz	-4279
det	-4280
Hex	-4281
Replace	-4282
("<	-4283
[2]	-4284
▁head	-4285
Head	-4286
Export	-4287
peed	-4288
Opt	-4289
gest	-4290
▁chain	-4291
▁Character	-4292
escape	-4293
VO	-4294
▁Name	-4295
FIELD	-4296
▁wr	-4297
MA	-4298
getStart	-4299
▁amount	-4300
ighb	-4301
▁pan	-4302
(".	-4303
Strings	-4304
pol	-4305
▁zero	-4306
▁starting	-4307
Matcher	-4308
Components	-4309
Viewer	-4310
It	-4311
▁cp	-4312
▁Logger	-4313
elp	-4314
},	-4315
GROUP	-4316
Associ	-4317
▁sorted	-4318
▁Bit	-4319
ogn	-4320
roke	-4321
Common	-4322
(":	-4323
▁Add	-4324
Ob	-4325
▁Config	-4326
▁rect	-4327
getNext	-4328
World	-4329
ilation	-4330
light	-4331
utomat	-4332
▁packet	-4333
pop	-4334
▁memory	-4335
late	-4336
Background	-4337
Arrays	-4338
br	-4339
▁multi	-4340
display	-4341
imiter	-4342
Day	-4343
_2);	-4344
▁Server	-4345
Depth	-4346
Unknown	-4347
Pixel	-4348
account	-4349
PTION	-4350
getAct	-4351
Direction	-4352
▁flag	-4353
ctx	-4354
ording	-4355
Literal	-4356
package	-4357
Assignment	-4358
prev	-4359
ernet	-4360
groupId	-4361
ourn	-4362
▁attempt	-4363
GTH	-4364
expression	-4365
Ms	-4366
Big	-4367
AV	-4368
▁mask	-4369
ResponseAsync	-4370
GB	-4371
function	-4372
DEX	-4373
rows	-4374
▁AN	-4375
▁apiVersion	-4376
▁0))	-4377
▁Wh	-4378
▁unique	-4379
▁again	-4380
▁tile	-4381
ryption	-4382
▁components	-4383
BER	-4384
Generic	-4385
SSION	-4386
▁stmt	-4387
getBytes	-4388
▁companyId	-4389
ARY	-4390
Labels	-4391
▁would	-4392
des	-4393
Asset	-4394
replaceAll	-4395
▁relative	-4396
Workspace	-4397
▁1.	-4398
ony	-4399
style	-4400
dl	-4401
▁ignored	-4402
▁loop	-4403
-8	-4404
Tokenizer	-4405
xff	-4406
GL	-4407
ipher	-4408
post	-4409
▁support	-4410
Complete	-4411
▁Immutable	-4412
>>>	-4413
Indices	-4414
▁screen	-4415
rant	-4416
fill	-4417
Removes	-4418
▁language	-4419
ACT	-4420
IBU	-4421
getTarget	-4422
Login	-4423
ison	-4424
▁edit	-4425
Stmt	-4426
▁Command	-4427
posed	-4428
Determ	-4429
Attempt	-4430
amazon	-4431
xFF	-4432
▁fill	-4433
istic	-4434
▁least	-4435
0);	-4436
Global	-4437
document	-4438
▁"-	-4439
Env	-4440
off	-4441
avig	-4442
aries	-4443
▁parsed	-4444
ively	-4445
EL	-4446
Primary	-4447
getField	-4448
▁necessary	-4449
ness	-4450
ival	-4451
▁Tim	-4452
▁initialize	-4453
[0],	-4454
▁candidate	-4455
START	-4456
report	-4457
Clause	-4458
Constraints	-4459
▁Constants	-4460
▁Xml	-4461
▁encoded	-4462
▁ct	-4463
NODE	-4464
INSTANCE	-4465
▁fs	-4466
Transition	-4467
aws	-4468
yped	-4469
Raw	-4470
Chars	-4471
▁axis	-4472
desc	-4473
▁details	-4474
ators	-4475
plica	-4476
▁verify	-4477
▁setting	-4478
PRI	-4479
selection	-4480
collect	-4481
--)	-4482
cut	-4483
▁Get	-4484
getAll	-4485
▁variables	-4486
▁QueryPos	-4487
urface	-4488
▁Ad	-4489
ping	-4490
FE	-4491
("-	-4492
▁Utils	-4493
▁Security	-4494
ond	-4495
innerProperties	-4496
generate	-4497
getPre	-4498
Locked	-4499
▁fragment	-4500
leton	-4501
OD	-4502
Allowed	-4503
pressed	-4504
▁Tra	-4505
▁partic	-4506
Filters	-4507
▁prob	-4508
▁none	-4509
meta	-4510
EMPTY	-4511
>,	-4512
rule	-4513
notated	-4514
vm	-4515
Register	-4516
▁ip	-4517
signed	-4518
lice	-4519
aim	-4520
conn	-4521
NUM	-4522
▁},	-4523
ByName	-4524
Records	-4525
▁instead	-4526
lastIndexOf	-4527
eek	-4528
▁appends	-4529
▁according	-4530
▁binding	-4531
IBUTE	-4532
isStartElement	-4533
▁import	-4534
_2	-4535
▁neg	-4536
▁Int	-4537
DA	-4538
peri	-4539
Timer	-4540
SQLException	-4541
▁algorithm	-4542
Visibility	-4543
Converts	-4544
▁loaded	-4545
▁caller	-4546
▁determine	-4547
▁assum	-4548
sue	-4549
▁Open	-4550
LENGTH	-4551
Binary	-4552
Assignable	-4553
def	-4554
CONFIG	-4555
orizont	-4556
▁Job	-4557
▁strings	-4558
Send	-4559
▁javax	-4560
▁snapshot	-4561
▁complete	-4562
ulation	-4563
▁volume	-4564
▁flags	-4565
Bind	-4566
▁workspace	-4567
▁expr	-4568
etter	-4569
▁contact	-4570
▁ioe	-4571
▁Level	-4572
rowser	-4573
▁includ	-4574
▁;	-4575
Each	-4576
lookup	-4577
schema	-4578
Do	-4579
Assert	-4580
Private	-4581
▁{"	-4582
idden	-4583
▁box	-4584
iness	-4585
▁3)	-4586
▁since	-4587
▁Locale	-4588
LY	-4589
Rout	-4590
total	-4591
random	-4592
Contents	-4593
Expected	-4594
Prev	-4595
Metric	-4596
ernetes	-4597
ubernetes	-4598
commit	-4599
utes	-4600
failed	-4601
ategories	-4602
PagedResponse	-4603
3,	-4604
Consumer	-4605
▁loader	-4606
Note	-4607
aging	-4608
▁Parameter	-4609
▁visible	-4610
getLast	-4611
▁interval	-4612
▁Client	-4613
CRE	-4614
dbc	-4615
otype	-4616
▁menu	-4617
begin	-4618
man	-4619
coming	-4620
world	-4621
▁ByteBuffer	-4622
mbed	-4623
▁timestamp	-4624
▁Intent	-4625
▁calculate	-4626
Dependency	-4627
ournal	-4628
Reads	-4629
Blocks	-4630
STATUS	-4631
Archive	-4632
datab	-4633
getChildren	-4634
viders	-4635
ism	-4636
lipse	-4637
ContentType	-4638
▁effect	-4639
Vert	-4640
quires	-4641
▁received	-4642
oles	-4643
should	-4644
vt	-4645
NaN	-4646
getSh	-4647
REQUEST	-4648
▁remaining	-4649
previous	-4650
Lat	-4651
▁Am	-4652
▁creating	-4653
OC	-4654
▁os	-4655
cest	-4656
irror	-4657
generated	-4658
itespace	-4659
book	-4660
points	-4661
▁paths	-4662
Unexpected	-4663
Play	-4664
▁Calendar	-4665
▁named	-4666
▁uses	-4667
▁global	-4668
▁refresh	-4669
▁processing	-4670
mi	-4671
rupt	-4672
▁anim	-4673
gable	-4674
▁modified	-4675
Tri	-4676
stit	-4677
izard	-4678
▁atom	-4679
▁plan	-4680
rics	-4681
pattern	-4682
Activ	-4683
Delegate	-4684
ipeline	-4685
Compat	-4686
Preferences	-4687
▁reason	-4688
▁Ed	-4689
▁invoke	-4690
▁alias	-4691
Connector	-4692
comm	-4693
Principal	-4694
▁BigDecimal	-4695
ivid	-4696
▁mer	-4697
member	-4698
▁isSet	-4699
▁operator	-4700
▁low	-4701
flush	-4702
▁outer	-4703
nextToken	-4704
sole	-4705
ONG	-4706
WARNING	-4707
▁go	-4708
parameters	-4709
▁pending	-4710
▁Function	-4711
▁clone	-4712
▁Sw	-4713
Unique	-4714
▁Other	-4715
Collect	-4716
▁socket	-4717
avail	-4718
▁gu	-4719
▁ids	-4720
IST	-4721
orizontal	-4722
▁Stream	-4723
riction	-4724
▁1));	-4725
RAY	-4726
Band	-4727
▁most	-4728
module	-4729
vance	-4730
Random	-4731
SPACE	-4732
0}	-4733
▁See	-4734
▁comment	-4735
vers	-4736
Has	-4737
Changes	-4738
parison	-4739
uplicate	-4740
LOCK	-4741
▁Search	-4742
▁inv	-4743
Co	-4744
microsoft	-4745
setName	-4746
▁retval	-4747
isLog	-4748
layer	-4749
OutOf	-4750
▁like	-4751
Present	-4752
databinding	-4753
fficient	-4754
system	-4755
Finish	-4756
▁defaultValue	-4757
getMethod	-4758
Schedule	-4759
oto	-4760
▁export	-4761
▁those	-4762
▁toString	-4763
▁symbol	-4764
Tx	-4765
rees	-4766
self	-4767
ours	-4768
Runtime	-4769
ATTRIBUTE	-4770
▁bucket	-4771
▁configured	-4772
Topic	-4773
▁Met	-4774
irm	-4775
▁Runnable	-4776
monitor	-4777
ROM	-4778
ework	-4779
▁whose	-4780
owner	-4781
havior	-4782
relation	-4783
▁future	-4784
Tasks	-4785
Destination	-4786
Declared	-4787
ramework	-4788
Vars	-4789
ceptor	-4790
getIndex	-4791
raction	-4792
overage	-4793
ront	-4794
▁times	-4795
children	-4796
Formatter	-4797
▁BY	-4798
WITH	-4799
formed	-4800
▁your	-4801
▁sets	-4802
readLine	-4803
getLocation	-4804
pn	-4805
200	-4806
PORT	-4807
▁Media	-4808
emptyList	-4809
▁media	-4810
▁ignore	-4811
jb	-4812
KEN	-4813
▁checks	-4814
Void	-4815
▁Print	-4816
▁schedule	-4817
eries	-4818
unit	-4819
Descriptors	-4820
NULL	-4821
Fetch	-4822
non	-4823
imeType	-4824
Delay	-4825
getRoot	-4826
▁ca	-4827
amazonaws	-4828
▁sol	-4829
Aggreg	-4830
Retrie	-4831
TS	-4832
thread	-4833
isAssignable	-4834
mode	-4835
Place	-4836
▁QueryUtil	-4837
ersistent	-4838
notification	-4839
Border	-4840
ather	-4841
Exit	-4842
Infos	-4843
getMin	-4844
▁common	-4845
▁virtual	-4846
Done	-4847
reference	-4848
▁>>>	-4849
▁external	-4850
Parts	-4851
uet	-4852
▁Entry	-4853
redi	-4854
Public	-4855
clusive	-4856
0_	-4857
icon	-4858
lert	-4859
cheduler	-4860
▁pe	-4861
getNum	-4862
▁integer	-4863
ifiable	-4864
▁Pair	-4865
isNot	-4866
500	-4867
aming	-4868
▁username	-4869
Upload	-4870
inator	-4871
TA	-4872
▁push	-4873
Managed	-4874
▁getC	-4875
ynchron	-4876
ysical	-4877
▁members	-4878
▁always	-4879
INDEX	-4880
road	-4881
WE	-4882
▁enum	-4883
cluster	-4884
Sk	-4885
ResponseBody	-4886
▁Annotation	-4887
▁how	-4888
gen	-4889
POS	-4890
▁IO	-4891
scrib	-4892
DataType	-4893
▁Be	-4894
▁every	-4895
Transfer	-4896
aving	-4897
IR	-4898
Statistics	-4899
FINI	-4900
5,	-4901
Main	-4902
LICATION	-4903
super	-4904
▁these	-4905
Pending	-4906
▁direction	-4907
▁flow	-4908
Sum	-4909
Begin	-4910
warning	-4911
▁constant	-4912
quival	-4913
ENCE	-4914
▁Rest	-4915
listener	-4916
▁repeated	-4917
uetooth	-4918
▁area	-4919
Threshold	-4920
▁Sp	-4921
domain	-4922
da	-4923
▁trigger	-4924
▁contained	-4925
lex	-4926
▁saved	-4927
ernel	-4928
KNO	-4929
▁creates	-4930
▁Cl	-4931
▁structure	-4932
▁Messages	-4933
Users	-4934
si	-4935
paredStatement	-4936
Sol	-4937
isDirectory	-4938
bench	-4939
Tracing	-4940
setEnabled	-4941
▁duration	-4942
Subscription	-4943
▁Application	-4944
getEntity	-4945
keys	-4946
serial	-4947
High	-4948
configuration	-4949
acle	-4950
ech	-4951
tn	-4952
▁way	-4953
NumberOf	-4954
Validate	-4955
04	-4956
▁here	-4957
▁del	-4958
REF	-4959
sleep	-4960
▁protocol	-4961
▁center	-4962
▁gen	-4963
ilt	-4964
getComponent	-4965
▁adapter	-4966
fail	-4967
▁finderPath	-4968
▁Check	-4969
Bitmap	-4970
wrap	-4971
rypted	-4972
ationException	-4973
▁bits	-4974
getProject	-4975
▁deleted	-4976
▁Amazon	-4977
▁simple	-4978
TreeNode	-4979
cursor	-4980
Sec	-4981
condition	-4982
Running	-4983
Instruction	-4984
▁Parse	-4985
FIL	-4986
usiness	-4987
tegr	-4988
jar	-4989
▁Package	-4990
KNOWN	-4991
▁actions	-4992
><	-4993
isIn	-4994
prepare	-4995
▁</	-4996
▁(1	-4997
getLogger	-4998
Produ	-4999
DataSource	-5000
MIT	-5001
Unsupported	-5002
getState	-5003
▁"_	-5004
Sim	-5005
GroupId	-5006
Same	-5007
scale	-5008
Launch	-5009
▁environment	-5010
rec	-5011
▁3;	-5012
SinglePage	-5013
RES	-5014
UpperCase	-5015
env	-5016
▁bar	-5017
useFinderCache	-5018
▁initialized	-5019
Peer	-5020
alled	-5021
orph	-5022
▁shape	-5023
▁Line	-5024
Branch	-5025
▁release	-5026
pret	-5027
Catalog	-5028
Ne	-5029
getSize	-5030
SinglePageAsync	-5031
isAssignableFrom	-5032
▁certificate	-5033
conditions	-5034
▁resolved	-5035
Warning	-5036
pear	-5037
▁closeSession	-5038
▁topic	-5039
Cert	-5040
▁HTTP	-5041
▁Otherwise	-5042
====	-5043
release	-5044
▁were	-5045
ELEMENT	-5046
Year	-5047
lying	-5048
Syntax	-5049
▁Filter	-5050
DOM	-5051
▁via	-5052
▁Bundle	-5053
vals	-5054
LS	-5055
etAddress	-5056
FLAG	-5057
fileName	-5058
real	-5059
Invocation	-5060
▁adjust	-5061
UST	-5062
Units	-5063
▁()	-5064
SUB	-5065
Article	-5066
Filename	-5067
services	-5068
Management	-5069
▁openSession	-5070
▁series	-5071
▁logic	-5072
CHAN	-5073
Permissions	-5074
Codes	-5075
Inv	-5076
fire	-5077
Animation	-5078
direct	-5079
yles	-5080
Trigger	-5081
elements	-5082
▁retrieve	-5083
Quot	-5084
Cancel	-5085
Driver	-5086
quent	-5087
▁suffix	-5088
annotation	-5089
▁Database	-5090
▁inner	-5091
ading	-5092
▁BigInteger	-5093
▁4;	-5094
kit	-5095
Side	-5096
schemas	-5097
feature	-5098
▁period	-5099
▁aggreg	-5100
▁specify	-5101
reater	-5102
PT	-5103
REG	-5104
device	-5105
plates	-5106
Addr	-5107
UserId	-5108
▁numberOf	-5109
ls	-5110
▁sync	-5111
▁pairs	-5112
getApp	-5113
HEADER	-5114
getEnd	-5115
olicies	-5116
LETE	-5117
USE	-5118
isValid	-5119
▁Random	-5120
▁ts	-5121
▁receiver	-5122
▁produ	-5123
igned	-5124
▁0.0;	-5125
TOKEN	-5126
kubernetes	-5127
Preference	-5128
▁tri	-5129
iki	-5130
items	-5131
AUTH	-5132
ARD	-5133
zip	-5134
▁Operation	-5135
▁vert	-5136
alle	-5137
BYTE	-5138
quot	-5139
entation	-5140
oring	-5141
alk	-5142
▁..	-5143
agram	-5144
▁payload	-5145
▁ResultSet	-5146
TRAN	-5147
Prob	-5148
lers	-5149
Super	-5150
FILTER	-5151
▁small	-5152
▁Core	-5153
fe	-5154
precated	-5155
Ab	-5156
ADD	-5157
▁paint	-5158
Center	-5159
tab	-5160
edit	-5161
CONTENT	-5162
elet	-5163
▁registry	-5164
PROP	-5165
defined	-5166
ci	-5167
normal	-5168
SV	-5169
ctor	-5170
Merge	-5171
region	-5172
▁arr	-5173
getConnection	-5174
2(	-5175
multi	-5176
edge	-5177
▁Schema	-5178
compute	-5179
VENT	-5180
Named	-5181
▁FileInputStream	-5182
▁updates	-5183
getSelected	-5184
alance	-5185
notify	-5186
bean	-5187
▁perm	-5188
Cost	-5189
decode	-5190
requency	-5191
getApi	-5192
▁users	-5193
▁route	-5194
getHost	-5195
AccessException	-5196
▁depth	-5197
step	-5198
▁"/"	-5199
▁IP	-5200
▁CON	-5201
Processing	-5202
getDisplay	-5203
Buff	-5204
▁zip	-5205
▁Iter	-5206
▁Ref	-5207
argin	-5208
▁needs	-5209
▁validation	-5210
Reason	-5211
';	-5212
Qualified	-5213
▁closed	-5214
available	-5215
▁records	-5216
Extended	-5217
Times	-5218
▁rot	-5219
grade	-5220
FilePath	-5221
currentThread	-5222
Authentication	-5223
Const	-5224
Envelope	-5225
Visitor	-5226
▁"201	-5227
filename	-5228
▁fetchBy	-5229
EW	-5230
tracking	-5231
▁\	-5232
Counts	-5233
gl	-5234
▁agent	-5235
lyph	-5236
alt	-5237
▁sl	-5238
▁NOT	-5239
▁consider	-5240
lg	-5241
iling	-5242
▁"<	-5243
▁inside	-5244
▁widget	-5245
})	-5246
font	-5247
▁Atom	-5248
▁builderForValue	-5249
▁complex	-5250
SECONDS	-5251
▁indices	-5252
▁mean	-5253
Entities	-5254
ParseException	-5255
▁day	-5256
Implement	-5257
▁0.5	-5258
Break	-5259
Bad	-5260
rict	-5261
Email	-5262
▁Input	-5263
ough	-5264
▁Basic	-5265
▁Unsupported	-5266
role	-5267
ridge	-5268
coord	-5269
Comput	-5270
agnost	-5271
Html	-5272
Dictionary	-5273
Nonnull	-5274
▁Comp	-5275
invalid	-5276
frame	-5277
Calcul	-5278
IsMutable	-5279
Matches	-5280
skip	-5281
fully	-5282
▁separator	-5283
Cookie	-5284
▁artifact	-5285
Loop	-5286
Combo	-5287
PARATOR	-5288
GR	-5289
INVALID	-5290
Program	-5291
provider	-5292
▁side	-5293
▁Generic	-5294
isLoggable	-5295
imate	-5296
▁Tem	-5297
Book	-5298
▁Sql	-5299
▁visit	-5300
eme	-5301
Positions	-5302
ooser	-5303
▁vertex	-5304
Closed	-5305
SdkInternal	-5306
getHeaders	-5307
▁DEFAULT	-5308
Sl	-5309
Modifier	-5310
▁play	-5311
push	-5312
▁methodName	-5313
getRow	-5314
▁operations	-5315
arge	-5316
plies	-5317
BLE	-5318
▁panel	-5319
getToken	-5320
Disk	-5321
80	-5322
Without	-5323
ITE	-5324
Added	-5325
Transport	-5326
uggest	-5327
loaded	-5328
getSimple	-5329
NativeType	-5330
▁binary	-5331
SdkInternalList	-5332
Phase	-5333
▁AST	-5334
▁assigned	-5335
html	-5336
getService	-5337
Month	-5338
▁1:	-5339
▁require	-5340
isAny	-5341
▁tasks	-5342
Skip	-5343
au	-5344
▁cancel	-5345
▁scal	-5346
OFF	-5347
CD	-5348
holder	-5349
▁*=	-5350
▁Matcher	-5351
getModel	-5352
▁once	-5353
Effect	-5354
▁coord	-5355
Uid	-5356
Contain	-5357
hasMoreElements	-5358
▁comput	-5359
Persistence	-5360
adow	-5361
Scal	-5362
▁elem	-5363
Home	-5364
▁what	-5365
▁et	-5366
IDs	-5367
34	-5368
ined	-5369
andidates	-5370
▁shared	-5371
▁failure	-5372
ByteBuffer	-5373
force	-5374
INTER	-5375
▁Ph	-5376
writer	-5377
SCRI	-5378
Final	-5379
GHT	-5380
Reactor	-5381
Library	-5382
storage	-5383
oracle	-5384
Utility	-5385
▁Column	-5386
raft	-5387
▁chars	-5388
Privile	-5389
▁pt	-5390
Switch	-5391
apture	-5392
Predicate	-5393
peat	-5394
▁known	-5395
SM	-5396
eam	-5397
Optional	-5398
eh	-5399
▁blocks	-5400
Execute	-5401
Mgr	-5402
optional	-5403
Requests	-5404
▁score	-5405
transform	-5406
▁MT	-5407
ital	-5408
TERNAL	-5409
Normal	-5410
eeded	-5411
▁4)	-5412
rm	-5413
PH	-5414
layout	-5415
getSession	-5416
(0)	-5417
password	-5418
▁Source	-5419
forEach	-5420
OutOfBounds	-5421
nextElement	-5422
▁declar	-5423
CCESS	-5424
▁finderCache	-5425
isNull	-5426
▁engine	-5427
ants	-5428
▁filters	-5429
Price	-5430
▁ServiceResponse	-5431
ATED	-5432
permission	-5433
▁md	-5434
WHERE	-5435
flags	-5436
Workflow	-5437
Old	-5438
▁Code	-5439
dap	-5440
Suffix	-5441
▁sk	-5442
▁minimum	-5443
&#	-5444
readOnly	-5445
▁Reference	-5446
TRUE	-5447
▁don	-5448
▁scroll	-5449
Alpha	-5450
▁img	-5451
IF	-5452
21	-5453
▁der	-5454
utils	-5455
CF	-5456
▁warn	-5457
▁Mo	-5458
Platform	-5459
▁expand	-5460
▁native	-5461
Chart	-5462
panded	-5463
▁force	-5464
cap	-5465
Geometry	-5466
▁abs	-5467
success	-5468
THOD	-5469
plan	-5470
/"	-5471
▁conver	-5472
ilar	-5473
FORMAT	-5474
concat	-5475
security	-5476
ServletResponse	-5477
ceed	-5478
alformed	-5479
▁sure	-5480
▁getAll	-5481
("[	-5482
▁Finder	-5483
Relationship	-5484
pool	-5485
ourse	-5486
HashSet	-5487
YPE	-5488
Notify	-5489
ever	-5490
▁decode	-5491
Mouse	-5492
extraParams	-5493
setMessage	-5494
MD	-5495
Graphics	-5496
▁1))	-5497
TracingEnabled	-5498
▁pres	-5499
alf	-5500
Clean	-5501
DAY	-5502
WORD	-5503
▁ClassLoader	-5504
sume	-5505
▁program	-5506
NoSuch	-5507
ibling	-5508
▁admin	-5509
Locator	-5510
▁rep	-5511
getVersion	-5512
erved	-5513
Indic	-5514
TableName	-5515
getNamespace	-5516
Ptr	-5517
▁bottom	-5518
3);	-5519
iol	-5520
Install	-5521
metadata	-5522
tool	-5523
flat	-5524
rase	-5525
safe	-5526
Given	-5527
▁retrie	-5528
Dispatch	-5529
Mappings	-5530
Leg	-5531
Seconds	-5532
▁When	-5533
▁ds	-5534
unlock	-5535
ifec	-5536
]))	-5537
MAP	-5538
Net	-5539
ining	-5540
▁setup	-5541
Cause	-5542
Dat	-5543
Connected	-5544
ural	-5545
Credentials	-5546
▁DOM	-5547
Edges	-5548
▁activ	-5549
▁hex	-5550
▁detect	-5551
allel	-5552
bmc	-5553
Deployment	-5554
paint	-5555
▁identity	-5556
▁own	-5557
actual	-5558
amb	-5559
getDocument	-5560
allow	-5561
▁catalog	-5562
6.	-5563
Throw	-5564
verage	-5565
nodes	-5566
▁AND	-5567
getLong	-5568
▁parsing	-5569
▁nextLink	-5570
▁segments	-5571
Contract	-5572
roadcast	-5573
EndElement	-5574
GIN	-5575
Attachment	-5576
▁alloc	-5577
ones	-5578
Backup	-5579
▁references	-5580
▁StringTokenizer	-5581
HTTP	-5582
RemoteException	-5583
Zero	-5584
SERVICE	-5585
▁Transaction	-5586
_8	-5587
nd	-5588
MASK	-5589
setString	-5590
▁stats	-5591
▁permissions	-5592
Gateway	-5593
Secret	-5594
lat	-5595
▁Network	-5596
▁gc	-5597
cision	-5598
▁">	-5599
IVE	-5600
scope	-5601
▁less	-5602
dr	-5603
▁yet	-5604
▁buff	-5605
Rot	-5606
▁auto	-5607
aml	-5608
Created	-5609
fields	-5610
▁reading	-5611
▁OutputStream	-5612
▁answer	-5613
▁Build	-5614
Parses	-5615
▁peer	-5616
[]>	-5617
withContext	-5618
locale	-5619
Forward	-5620
Construct	-5621
center	-5622
description	-5623
lots	-5624
mergeContext	-5625
▁dim	-5626
▁expect	-5627
ResultSet	-5628
losing	-5629
▁features	-5630
▁FluxUtil	-5631
ildcard	-5632
agination	-5633
toUpperCase	-5634
Occ	-5635
lev	-5636
FluxUtil	-5637
▁annotations	-5638
Struct	-5639
SEPARATOR	-5640
ILED	-5641
plugin	-5642
APPLICATION	-5643
▁Types	-5644
▁Uri	-5645
▁keep	-5646
Shared	-5647
▁asset	-5648
▁Standard	-5649
Collections	-5650
▁Part	-5651
▁labels	-5652
toReactor	-5653
toReactorContext	-5654
visit	-5655
ensitive	-5656
orary	-5657
."	-5658
ifecycle	-5659
userId	-5660
depend	-5661
ChangeListener	-5662
aves	-5663
▁lon	-5664
▁construct	-5665
Priority	-5666
avor	-5667
▁Zip	-5668
▁indexes	-5669
Anchor	-5670
▁Page	-5671
Dao	-5672
existing	-5673
attributes	-5674
cedure	-5675
▁startTime	-5676
ued	-5677
▁Term	-5678
ne	-5679
▁car	-5680
▁UUID	-5681
forName	-5682
▁Remote	-5683
ARRAY	-5684
Roles	-5685
▁2.0	-5686
Drawable	-5687
▁tick	-5688
▁pw	-5689
▁Window	-5690
▁const	-5691
PageLink	-5692
getError	-5693
▁publish	-5694
▁negative	-5695
weight	-5696
▁Feature	-5697
▁Activity	-5698
Download	-5699
Quest	-5700
▁origin	-5701
createQuery	-5702
cestor	-5703
beans	-5704
dig	-5705
▁pur	-5706
-1	-5707
periment	-5708
DateFormat	-5709
▁").	-5710
sq	-5711
CC	-5712
results	-5713
▁instruction	-5714
▁(;	-5715
inct	-5716
Stroke	-5717
▁history	-5718
render	-5719
▁fieldName	-5720
Digest	-5721
Ratio	-5722
▁getS	-5723
▁vm	-5724
Variant	-5725
▁filtered	-5726
Worker	-5727
pack	-5728
▁Repository	-5729
ORK	-5730
ECK	-5731
uses	-5732
▁email	-5733
▁overri	-5734
Updated	-5735
uc	-5736
Exec	-5737
Pass	-5738
Refresh	-5739
Gu	-5740
quivalent	-5741
decl	-5742
▁authentication	-5743
▁TimeUnit	-5744
▁login	-5745
Segments	-5746
Receiver	-5747
▁respon	-5748
MON	-5749
loader	-5750
▁attrs	-5751
▁install	-5752
Collectors	-5753
Serializer	-5754
▁exc	-5755
cancel	-5756
▁converted	-5757
Manifest	-5758
Completion	-5759
▁standard	-5760
OBJECT	-5761
▁"[	-5762
site	-5763
▁wrapper	-5764
enar	-5765
cipient	-5766
▁Grouper	-5767
▁written	-5768
antic	-5769
▁separ	-5770
Revision	-5771
getPackage	-5772
Bottom	-5773
EObject	-5774
Elem	-5775
dist	-5776
▁requests	-5777
SEVER	-5778
writ	-5779
Chat	-5780
Fore	-5781
▁Location	-5782
illi	-5783
▁adds	-5784
▁pkg	-5785
▁Cache	-5786
Measure	-5787
▁executor	-5788
▁Storage	-5789
Ops	-5790
Leaf	-5791
Sent	-5792
otent	-5793
Feed	-5794
getApiVersion	-5795
dc	-5796
▁subscription	-5797
umul	-5798
▁game	-5799
References	-5800
▁!(	-5801
▁obtain	-5802
▁invoked	-5803
getBoolean	-5804
▁controller	-5805
▁TAG	-5806
▁pc	-5807
tection	-5808
backtracking	-5809
ANT	-5810
Conn	-5811
getSimpleName	-5812
▁UN	-5813
getV	-5814
Payload	-5815
Tables	-5816
inate	-5817
rior	-5818
isPresent	-5819
tology	-5820
SIG	-5821
▁calcul	-5822
▁productionMode	-5823
Indexes	-5824
▁newValue	-5825
alth	-5826
TF	-5827
anger	-5828
quences	-5829
Lists	-5830
▁cc	-5831
BACK	-5832
RESOURCE	-5833
▁Player	-5834
(2,	-5835
sRequestMetrics	-5836
verity	-5837
ributed	-5838
▁starts	-5839
ItemProvider	-5840
crm	-5841
lict	-5842
DED	-5843
XY	-5844
▁br	-5845
▁ws	-5846
tf	-5847
▁Dimension	-5848
RS	-5849
POSI	-5850
▁Create	-5851
extension	-5852
amage	-5853
JSONObject	-5854
▁factor	-5855
▁\""	-5856
<?>)	-5857
bose	-5858
enable	-5859
Game	-5860
UNKNOWN	-5861
▁tableName	-5862
▁calendar	-5863
javax	-5864
vide	-5865
>.	-5866
Checked	-5867
▁BufferedImage	-5868
DIS	-5869
▁dat	-5870
MAN	-5871
▁est	-5872
▁means	-5873
Payment	-5874
▁ORDER	-5875
▁automat	-5876
Primitive	-5877
aped	-5878
Compound	-5879
Dim	-5880
pair	-5881
CRS	-5882
Problem	-5883
Mis	-5884
False	-5885
Safe	-5886
▁Multi	-5887
▁"."	-5888
Percent	-5889
▁year	-5890
doubleValue	-5891
RC	-5892
operation	-5893
Audio	-5894
▁VM	-5895
RENT	-5896
(0));	-5897
[4	-5898
cmd	-5899
▁library	-5900
CENT	-5901
Sheet	-5902
▁marker	-5903
mun	-5904
14	-5905
PARAM	-5906
VAR	-5907
term	-5908
folder	-5909
option	-5910
Publish	-5911
dp	-5912
▁rout	-5913
▁tests	-5914
▁coordinates	-5915
Stage	-5916
isBlank	-5917
Dto	-5918
Standard	-5919
Removed	-5920
▁Serial	-5921
Basic	-5922
▁"",	-5923
complete	-5924
gers	-5925
Criteria	-5926
▁connected	-5927
ividual	-5928
▁DateTime	-5929
ught	-5930
lines	-5931
case	-5932
isTrace	-5933
dt	-5934
Free	-5935
▁replacement	-5936
Needed	-5937
Zip	-5938
icip	-5939
ensity	-5940
CUR	-5941
rece	-5942
flatMap	-5943
("");	-5944
Deleted	-5945
nextInt	-5946
▁month	-5947
Accessible	-5948
getSystem	-5949
Cast	-5950
▁av	-5951
category	-5952
▁branch	-5953
argument	-5954
▁forward	-5955
lower	-5956
(2);	-5957
Encoded	-5958
▁nsPrefix	-5959
Tools	-5960
words	-5961
▁managed	-5962
grid	-5963
Retrieves	-5964
▁runtime	-5965
▁getField	-5966
getCause	-5967
Received	-5968
getBase	-5969
UTE	-5970
▁aw	-5971
▁note	-5972
scan	-5973
▁jj	-5974
▁our	-5975
getLabel	-5976
Esc	-5977
▁against	-5978
Links	-5979
ral	-5980
▁prepare	-5981
...");	-5982
▁too	-5983
custom	-5984
parser	-5985
Operations	-5986
(""))	-5987
▁Sign	-5988
Abs	-5989
Fill	-5990
▁alpha	-5991
▁zone	-5992
BR	-5993
▁merged	-5994
▁Internal	-5995
isEndElement	-5996
execut	-5997
Person	-5998
▁PagedResponse	-5999
TraceComponent	-6000
▁{0}	-6001
quare	-6002
▁launch	-6003
Encoder	-6004
▁exact	-6005
Creation	-6006
day	-6007
bove	-6008
▁enable	-6009
▁processed	-6010
▁Can	-6011
sn	-6012
▁dispatch	-6013
contextWrite	-6014
[1]);	-6015
ActionException	-6016
POST	-6017
compile	-6018
]));	-6019
network	-6020
▁disk	-6021
partition	-6022
22	-6023
SERVER	-6024
▁All	-6025
5);	-6026
▁mid	-6027
▁occurrences	-6028
▁metric	-6029
▁cert	-6030
▁Coordinate	-6031
Neg	-6032
UMENT	-6033
apsed	-6034
▁particular	-6035
SCH	-6036
▁consumer	-6037
ERO	-6038
Prot	-6039
-01	-6040
▁started	-6041
toList	-6042
jor	-6043
TC	-6044
ae	-6045
Compar	-6046
unique	-6047
▁card	-6048
Drop	-6049
▁well	-6050
getSelection	-6051
▁cookie	-6052
DL	-6053
▁exit	-6054
▁generic	-6055
Tip	-6056
rammar	-6057
RY	-6058
▁PO	-6059
Retry	-6060
dx	-6061
Author	-6062
▁nested	-6063
Accessor	-6064
OPTION	-6065
Alignment	-6066
▁special	-6067
ogram	-6068
Hierarchy	-6069
avigation	-6070
atient	-6071
▁timer	-6072
alyzer	-6073
▁cls	-6074
mis	-6075
elem	-6076
▁background	-6077
Inventory	-6078
timeout	-6079
▁directly	-6080
evalu	-6081
sample	-6082
only	-6083
directory	-6084
▁indent	-6085
▁states	-6086
▁sig	-6087
▁quot	-6088
▁Label	-6089
Finds	-6090
ONT	-6091
Alert	-6092
▁Bl	-6093
Writable	-6094
getCount	-6095
▁free	-6096
usters	-6097
peek	-6098
Arr	-6099
▁getValue	-6100
▁ItemStack	-6101
racket	-6102
subscriptionId	-6103
Put	-6104
STEM	-6105
BL	-6106
1:	-6107
▁Servlet	-6108
expr	-6109
vailability	-6110
▁He	-6111
Perm	-6112
Padding	-6113
▁dx	-6114
CHECK	-6115
FOUND	-6116
FIC	-6117
Versions	-6118
loor	-6119
▁TYPE	-6120
BT	-6121
sequent	-6122
getJ	-6123
▁nb	-6124
ca	-6125
apes	-6126
▁underlying	-6127
OptionPane	-6128
iration	-6129
subject	-6130
▁archive	-6131
Pres	-6132
eclipse	-6133
▁Ver	-6134
▁greater	-6135
pped	-6136
▁Layout	-6137
ULE	-6138
▁driver	-6139
modifiable	-6140
▁pack	-6141
▁due	-6142
mbedded	-6143
AndNext	-6144
Generate	-6145
EVENT	-6146
▁returning	-6147
LOGGER	-6148
Matching	-6149
Dot	-6150
Definitions	-6151
lib	-6152
▁ms	-6153
getInput	-6154
▁flush	-6155
0000000	-6156
▁plot	-6157
come	-6158
▁getProperty	-6159
Cols	-6160
utation	-6161
Threads	-6162
▁Files	-6163
▁Debug	-6164
▁html	-6165
2_	-6166
cursive	-6167
TIC	-6168
icode	-6169
Extensions	-6170
▁mapped	-6171
▁shift	-6172
▁Font	-6173
remote	-6174
Quant	-6175
▁retry	-6176
pology	-6177
▁might	-6178
after	-6179
▁android	-6180
▁deployment	-6181
▁cb	-6182
schedule	-6183
XMLStream	-6184
iddle	-6185
Choice	-6186
seconds	-6187
azy	-6188
▁mouse	-6189
Runnable	-6190
▁cop	-6191
▁did	-6192
atible	-6193
Qualifier	-6194
ehicle	-6195
▁dy	-6196
fc	-6197
LOAD	-6198
getAs	-6199
chunk	-6200
4,	-6201
▁collect	-6202
mploy	-6203
▁startIndex	-6204
PrevAndNext	-6205
▁threads	-6206
izing	-6207
13	-6208
zure	-6209
▁proper	-6210
}");	-6211
Actor	-6212
plits	-6213
Stamp	-6214
illed	-6215
Machine	-6216
)",	-6217
▁Preconditions	-6218
▁Iterable	-6219
ChangeEvent	-6220
-0	-6221
WORK	-6222
BException	-6223
▁completed	-6224
Compute	-6225
android	-6226
ience	-6227
Inline	-6228
Sources	-6229
remaining	-6230
Translation	-6231
▁download	-6232
▁Atomic	-6233
reat	-6234
HTML	-6235
▁ApiException	-6236
Angle	-6237
Loaded	-6238
▁'/	-6239
rientation	-6240
equal	-6241
rames	-6242
getDeclared	-6243
going	-6244
▁seconds	-6245
▁services	-6246
:/	-6247
include	-6248
▁related	-6249
activity	-6250
olumes	-6251
▁SAX	-6252
Repo	-6253
resources	-6254
sequence	-6255
handler	-6256
._200	-6257
IDE	-6258
▁Display	-6259
▁workflow	-6260
▁cases	-6261
ention	-6262
▁formatt	-6263
NEC	-6264
FC	-6265
Dif	-6266
emon	-6267
pawn	-6268
▁helper	-6269
▁metrics	-6270
IGN	-6271
▁safe	-6272
Views	-6273
PP	-6274
▁delay	-6275
)),	-6276
require	-6277
>\	-6278
▁entities	-6279
▁SE	-6280
▁":"	-6281
POINT	-6282
companyId	-6283
DAO	-6284
▁getClass	-6285
distance	-6286
Fixed	-6287
Release	-6288
window	-6289
entries	-6290
▁PRO	-6291
Inject	-6292
collection	-6293
ALSE	-6294
▁included	-6295
ai	-6296
▁2:	-6297
acro	-6298
Cached	-6299
zone	-6300
()]);	-6301
DC	-6302
Workbench	-6303
bined	-6304
▁still	-6305
increment	-6306
uous	-6307
tract	-6308
resolved	-6309
AIL	-6310
allback	-6311
Requested	-6312
▁Container	-6313
▁packageName	-6314
▁elementList	-6315
Relative	-6316
ycl	-6317
destination	-6318
vc	-6319
▁rc	-6320
▁selector	-6321
▁Complet	-6322
▁numbers	-6323
persist	-6324
Specification	-6325
▁criteria	-6326
00,	-6327
getProperties	-6328
FR	-6329
▁core	-6330
UPDATE	-6331
▁propertyName	-6332
Car	-6333
ACHE	-6334
Room	-6335
activ	-6336
Patch	-6337
Previous	-6338
▁Version	-6339
METHOD	-6340
='	-6341
▁take	-6342
proxy	-6343
Blob	-6344
Sig	-6345
FORM	-6346
Drag	-6347
▁latest	-6348
▁Module	-6349
Whitespace	-6350
▁usage	-6351
getLine	-6352
yy	-6353
('.	-6354
Err	-6355
GEN	-6356
getPl	-6357
▁Execution	-6358
▁transfer	-6359
▁commerce	-6360
lems	-6361
▁EX	-6362
▁bitmap	-6363
LLI	-6364
Linked	-6365
ModelImpl	-6366
anos	-6367
▁SV	-6368
▁roll	-6369
1_	-6370
▁platform	-6371
ummy	-6372
▁feed	-6373
getPort	-6374
Ui	-6375
Mirror	-6376
posal	-6377
FAILED	-6378
<?,	-6379
callback	-6380
Locations	-6381
▁problem	-6382
DIR	-6383
]",	-6384
ially	-6385
getImage	-6386
Bag	-6387
Coordinate	-6388
[],	-6389
ARG	-6390
▁Pdf	-6391
illing	-6392
PR	-6393
LEFT	-6394
factory	-6395
▁Connect	-6396
getSup	-6397
SUCCESS	-6398
▁principal	-6399
▁span	-6400
▁CharSequence	-6401
LONG	-6402
▁FROM	-6403
Candidate	-6404
▁")");	-6405
▁focus	-6406
getDescription	-6407
▁occurred	-6408
}",	-6409
▁made	-6410
▁NULL	-6411
▁JOptionPane	-6412
enario	-6413
ERY	-6414
▁Id	-6415
▁fac	-6416
vs	-6417
pkg	-6418
▁pstmt	-6419
<?>>	-6420
▁dot	-6421
PS	-6422
repeated	-6423
▁absolute	-6424
▁Q	-6425
Wizard	-6426
▁bb	-6427
Family	-6428
▁bin	-6429
▁mem	-6430
Pack	-6431
getFull	-6432
▁tenant	-6433
Authorization	-6434
▁matched	-6435
RIGHT	-6436
▁checked	-6437
iber	-6438
When	-6439
SEVERE	-6440
endor	-6441
getCode	-6442
Acc	-6443
▁Instance	-6444
Modifiers	-6445
before	-6446
▁GL	-6447
▁alt	-6448
Refs	-6449
▁Virtual	-6450
VIEW	-6451
alias	-6452
SPE	-6453
getServer	-6454
Resolved	-6455
▁Update	-6456
batch	-6457
erc	-6458
getAttributes	-6459
product	-6460
▁pointer	-6461
▁classpath	-6462
ialect	-6463
▁Man	-6464
▁adding	-6465
Tenant	-6466
cls	-6467
▁CO	-6468
▁apiClient	-6469
▁Statement	-6470
Encryption	-6471
({	-6472
gb	-6473
▁mat	-6474
▁Slog	-6475
Finished	-6476
▁constraints	-6477
Interfaces	-6478
bundle	-6479
hashCode	-6480
dec	-6481
AMETER	-6482
Enter	-6483
▁reply	-6484
alan	-6485
▁arrays	-6486
▁8)	-6487
getID	-6488
▁You	-6489
▁24	-6490
▁net	-6491
sest	-6492
endpoint	-6493
visioning	-6494
▁edges	-6495
CLO	-6496
▁master	-6497
("\"	-6498
elf	-6499
fine	-6500
▁Account	-6501
Contin	-6502
▁1;.	-6503
Collector	-6504
▁itself	-6505
Try	-6506
▁avoid	-6507
▁ok	-6508
ABLED	-6509
▁Enumeration	-6510
▁explicit	-6511
getInputStream	-6512
username	-6513
AIN	-6514
mpt	-6515
▁seq	-6516
▁Rel	-6517
▁author	-6518
Connections	-6519
syn	-6520
▁Assertion	-6521
▁getD	-6522
▁Format	-6523
▁Bitmap	-6524
required	-6525
FileSystem	-6526
med	-6527
Decoder	-6528
Determines	-6529
▁trim	-6530
▁working	-6531
Geo	-6532
ube	-6533
Cloud	-6534
15	-6535
Checker	-6536
▁border	-6537
Operand	-6538
ReturnType	-6539
atype	-6540
diff	-6541
gu	-6542
▁tables	-6543
▁upload	-6544
Video	-6545
alloc	-6546
SUCH	-6547
delta	-6548
▁hold	-6549
NUMBER	-6550
ceeded	-6551
▁Ag	-6552
Writes	-6553
segment	-6554
▁assertNotNull	-6555
▁happ	-6556
BASE	-6557
removeAll	-6558
txt	-6559
DIRE	-6560
25	-6561
isEnabled	-6562
▁kind	-6563
toByteArray	-6564
oned	-6565
Digit	-6566
Started	-6567
iving	-6568
ano	-6569
▁JSONArray	-6570
TEMP	-6571
getTag	-6572
QueryParams	-6573
MB	-6574
▁Rule	-6575
▁backup	-6576
webservices	-6577
ulk	-6578
propertyName	-6579
Reset	-6580
setLayout	-6581
ride	-6582
▁patch	-6583
dispose	-6584
Decor	-6585
RESULT	-6586
crete	-6587
▁retVal	-6588
▁cr	-6589
getConfiguration	-6590
▁viewer	-6591
Sm	-6592
DOC	-6593
▁capacity	-6594
▁Clo	-6595
Remaining	-6596
Addresses	-6597
▁words	-6598
sec	-6599
istogram	-6600
sel	-6601
▁units	-6602
Using	-6603
moving	-6604
DBC	-6605
▁charset	-6606
SSL	-6607
▁Range	-6608
>"	-6609
("",	-6610
getW	-6611
▁SSL	-6612
▁handled	-6613
ZED	-6614
Iterable	-6615
▁even	-6616
MediaType	-6617
▁priority	-6618
pm	-6619
('\	-6620
EAR	-6621
.0",	-6622
▁Cluster	-6623
getConfig	-6624
done	-6625
Chooser	-6626
variable	-6627
▁...	-6628
▁getM	-6629
▁oldValue	-6630
▁CH	-6631
QUERY	-6632
MSG	-6633
▁Composite	-6634
aking	-6635
Observer	-6636
▁chart	-6637
dimension	-6638
▁gl	-6639
▁Geo	-6640
getAction	-6641
Analysis	-6642
Credential	-6643
transaction	-6644
policy	-6645
urrency	-6646
▁plain	-6647
▁Pos	-6648
▁increment	-6649
Since	-6650
assign	-6651
▁person	-6652
getActive	-6653
setVisible	-6654
▁Unit	-6655
'.	-6656
▁pk	-6657
▁band	-6658
Audit	-6659
button	-6660
etic	-6661
▁div	-6662
BIT	-6663
▁many	-6664
▁255	-6665
▁big	-6666
##	-6667
▁phase	-6668
IME	-6669
mask	-6670
▁dependency	-6671
executeQuery	-6672
putResult	-6673
Ign	-6674
semb	-6675
Deprecated	-6676
Power	-6677
RAN	-6678
aven	-6679
sess	-6680
Completed	-6681
Registration	-6682
▁And	-6683
▁hierarchy	-6684
Conversion	-6685
▁leg	-6686
uff	-6687
Shard	-6688
▁resultSet	-6689
iator	-6690
MILLI	-6691
Append	-6692
▁2;.	-6693
▁fix	-6694
▁Record	-6695
▁(0	-6696
▁drop	-6697
getTable	-6698
▁roles	-6699
▁requires	-6700
aches	-6701
SIGN	-6702
Clear	-6703
Compare	-6704
++,	-6705
props	-6706
▁relationship	-6707
addElement	-6708
▁-1);	-6709
Design	-6710
▁servlet	-6711
under	-6712
▁waiting	-6713
database	-6714
cursively	-6715
▁persist	-6716
▁resp	-6717
Resolve	-6718
Cmd	-6719
▁Inst	-6720
changed	-6721
parts	-6722
▁targets	-6723
▁digest	-6724
Absolute	-6725
▁creation	-6726
▁ss	-6727
▁Fast	-6728
▁desired	-6729
ByteString	-6730
▁Cur	-6731
itan	-6732
Alloc	-6733
▁represents	-6734
WA	-6735
jo	-6736
ORE	-6737
FAIL	-6738
tp	-6739
Plot	-6740
RESS	-6741
ffected	-6742
3)	-6743
ayers	-6744
-12	-6745
ROOT	-6746
ServiceException	-6747
UBLE	-6748
iation	-6749
▁instanti	-6750
▁invocation	-6751
▁etc	-6752
())));	-6753
Docs	-6754
TypeId	-6755
▁realm	-6756
cached	-6757
locity	-6758
▁Cell	-6759
Enable	-6760
86	-6761
scriber	-6762
finish	-6763
▁immediate	-6764
Based	-6765
▁bitField	-6766
▁sender	-6767
▁worker	-6768
ambda	-6769
SYSTEM	-6770
rain	-6771
ientation	-6772
▁ii	-6773
ingBox	-6774
singleton	-6775
Unsigned	-6776
Rectangle	-6777
▁nothing	-6778
▁including	-6779
Fire	-6780
iom	-6781
where	-6782
▁Channel	-6783
CharArray	-6784
dim	-6785
▁"'");	-6786
strument	-6787
sistency	-6788
▁inputStream	-6789
▁Bean	-6790
▁cost	-6791
▁restore	-6792
▁appear	-6793
initialize	-6794
▁predicate	-6795
▁pr	-6796
yper	-6797
ErrorMessage	-6798
▁pm	-6799
▁Render	-6800
editor	-6801
dn	-6802
agnostic	-6803
▁getString	-6804
beta	-6805
▁Matrix	-6806
elementAt	-6807
Association	-6808
▁modify	-6809
StringUtil	-6810
fetch	-6811
MenuItem	-6812
getClient	-6813
▁pi	-6814
")));	-6815
Pe	-6816
ARK	-6817
▁wrap	-6818
Allow	-6819
screen	-6820
Configs	-6821
CONNEC	-6822
high	-6823
_;	-6824
IGHT	-6825
▁previously	-6826
▁finished	-6827
▁declared	-6828
DK	-6829
▁cer	-6830
▁transition	-6831
(6	-6832
▁allows	-6833
Scanner	-6834
timestamp	-6835
binding	-6836
▁renderer	-6837
getGroup	-6838
▁Variable	-6839
oose	-6840
eeper	-6841
impl	-6842
▁Policy	-6843
mk	-6844
Adjust	-6845
rot	-6846
TEST	-6847
▁loading	-6848
▁threshold	-6849
FALSE	-6850
visible	-6851
tl	-6852
▁Common	-6853
getEx	-6854
▁Do	-6855
▁?>	-6856
Face	-6857
script	-6858
▁fixed	-6859
▁tuple	-6860
WID	-6861
Margin	-6862
igration	-6863
Resolution	-6864
ASS	-6865
atom	-6866
DataSet	-6867
Preview	-6868
Camera	-6869
getLocalName	-6870
atial	-6871
Hit	-6872
▁dep	-6873
isEntry	-6874
ents	-6875
▁delegate	-6876
Else	-6877
▁Read	-6878
ume	-6879
getOffset	-6880
getOutput	-6881
getLog	-6882
packageName	-6883
getAuth	-6884
36	-6885
▁HTML	-6886
aring	-6887
02	-6888
Question	-6889
("</	-6890
[2];	-6891
descriptor	-6892
▁'.	-6893
Roll	-6894
Classpath	-6895
tip	-6896
sd	-6897
iece	-6898
Dop	-6899
▁conversion	-6900
[(	-6901
ENTRY	-6902
FFER	-6903
correct	-6904
RA	-6905
Popup	-6906
Shell	-6907
▁versions	-6908
▁tail	-6909
Formats	-6910
Images	-6911
▁8;	-6912
sqrt	-6913
▁-1,	-6914
Dependencies	-6915
expand	-6916
ante	-6917
DOWN	-6918
35	-6919
):	-6920
Reply	-6921
TargetException	-6922
Master	-6923
DT	-6924
MATCH	-6925
▁Short	-6926
▁fullTypeName	-6927
Der	-6928
Alt	-6929
▁Validation	-6930
Packages	-6931
CLI	-6932
ONLY	-6933
Mem	-6934
Defined	-6935
▁incoming	-6936
Clone	-6937
getApplication	-6938
Organization	-6939
getCan	-6940
Arch	-6941
span	-6942
▁Hand	-6943
Targets	-6944
agraph	-6945
▁basic	-6946
RITE	-6947
atis	-6948
▁positive	-6949
▁IResource	-6950
rier	-6951
▁Runtime	-6952
Follow	-6953
▁'{}	-6954
adoc	-6955
▁sources	-6956
getClassLoader	-6957
Speed	-6958
opes	-6959
refresh	-6960
▁deserial	-6961
ides	-6962
▁transport	-6963
ng	-6964
▁"2.0",	-6965
getPosition	-6966
▁ParseException	-6967
▁blob	-6968
that	-6969
aken	-6970
▁referenced	-6971
▁MessageFormat	-6972
Doppe	-6973
▁subsequent	-6974
getHeader	-6975
URLConnection	-6976
counter	-6977
Doppelg	-6978
▁inputs	-6979
Doppelganger	-6980
admin	-6981
DSGenerator	-6982
Other	-6983
strap	-6984
neg	-6985
▁applied	-6986
dden	-6987
ters	-6988
longValue	-6989
isEntryEnabled	-6990
Verify	-6991
ARCH	-6992
kind	-6993
settings	-6994
getLocalized	-6995
▁1).	-6996
▁evaluate	-6997
Executable	-6998
▁got	-6999
NEW	-7000
clean	-7001
▁exceptions	-7002
Shift	-7003
Fault	-7004
▁Port	-7005
▁disabled	-7006
Formula	-7007
tokens	-7008
That	-7009
▁unknown	-7010
▁Spec	-7011
Interceptor	-7012
▁credentials	-7013
▁redu	-7014
xmlbeans	-7015
getResponse	-7016
▁positions	-7017
▁holder	-7018
need	-7019
▁getCurrent	-7020
VEL	-7021
VISI	-7022
MM	-7023
▁sn	-7024
▁successful	-7025
getAnnotation	-7026
Lang	-7027
▁uid	-7028
setSelected	-7029
▁isValid	-7030
▁occurrence	-7031
rb	-7032
Numbers	-7033
Mer	-7034
▁Logging	-7035
▁2.	-7036
▁norm	-7037
▁summary	-7038
Make	-7039
PARAMETER	-7040
▁conditions	-7041
ale	-7042
▁Per	-7043
efficient	-7044
▁authentic	-7045
eline	-7046
ProgressMonitor	-7047
ASH	-7048
rapped	-7049
Exist	-7050
Trust	-7051
▁operand	-7052
▁bel	-7053
Mult	-7054
RGB	-7055
OrUpdate	-7056
sect	-7057
car	-7058
▁escape	-7059
TIMEOUT	-7060
Scheme	-7061
ZERO	-7062
Src	-7063
commend	-7064
quip	-7065
ble	-7066
Ports	-7067
ItemStack	-7068
Providers	-7069
CA	-7070
TL	-7071
▁dump	-7072
▁radius	-7073
iet	-7074
bum	-7075
profile	-7076
▁measure	-7077
ertificates	-7078
▁getName	-7079
SN	-7080
▁provide	-7081
enabled	-7082
ATIVE	-7083
slot	-7084
CACHE	-7085
iterals	-7086
umbn	-7087
")))	-7088
Phone	-7089
gy	-7090
ov	-7091
▁errorMessage	-7092
Low	-7093
manager	-7094
▁assignment	-7095
Hook	-7096
▁self	-7097
▁applic	-7098
▁"]");	-7099
avadoc	-7100
bottom	-7101
language	-7102
4.	-7103
▁rhs	-7104
▁populate	-7105
ookies	-7106
Apply	-7107
ATURE	-7108
Numeric	-7109
pass	-7110
[1].	-7111
Supplier	-7112
Sem	-7113
▁hint	-7114
sync	-7115
udy	-7116
Transformer	-7117
▁den	-7118
▁dynamic	-7119
Orientation	-7120
▁3,	-7121
▁representing	-7122
definition	-7123
arr	-7124
PATTERN	-7125
5.	-7126
Coords	-7127
Maps	-7128
fieldName	-7129
any	-7130
▁actor	-7131
Bo	-7132
▁cf	-7133
▁connector	-7134
3;	-7135
Bug	-7136
rate	-7137
▁manifest	-7138
PrimaryKey	-7139
▁repl	-7140
▁ce	-7141
▁LinkedHashMap	-7142
rp	-7143
bits	-7144
▁Script	-7145
2[	-7146
▁clip	-7147
▁Row	-7148
▁seed	-7149
wt	-7150
▁coordinate	-7151
▁pixels	-7152
atisf	-7153
Attrs	-7154
▁Custom	-7155
("_	-7156
Week	-7157
Complex	-7158
suer	-7159
Bus	-7160
question	-7161
dataset	-7162
Origin	-7163
INFINI	-7164
▁receive	-7165
marshaller	-7166
Signal	-7167
finite	-7168
:\	-7169
wd	-7170
▁VAL	-7171
protocol	-7172
▁processor	-7173
ALIAS	-7174
(1));	-7175
DELETE	-7176
▁above	-7177
HexString	-7178
ette	-7179
Modules	-7180
Material	-7181
mapping	-7182
▁getting	-7183
▁actually	-7184
▁behavior	-7185
rott	-7186
▁ba	-7187
Watch	-7188
▁considered	-7189
dst	-7190
bed	-7191
sib	-7192
Dirty	-7193
series	-7194
note	-7195
▁Settings	-7196
▁Desc	-7197
▁Vis	-7198
▁click	-7199
▁canvas	-7200
▁checking	-7201
Ranges	-7202
Tax	-7203
getSt	-7204
Lib	-7205
Pages	-7206
Iterates	-7207
▁dd	-7208
So	-7209
Handles	-7210
▁mc	-7211
Dynamic	-7212
mployee	-7213
&#4	-7214
added	-7215
mitted	-7216
8,	-7217
▁deli	-7218
SHA	-7219
▁PrintWriter	-7220
getQuery	-7221
ii	-7222
itable	-7223
Texture	-7224
Vertical	-7225
SED	-7226
TRA	-7227
▁filePath	-7228
plain	-7229
REC	-7230
****	-7231
pector	-7232
▁Transform	-7233
▁Graphics	-7234
pag	-7235
▁know	-7236
▁neighb	-7237
▁gets	-7238
▁turn	-7239
Cop	-7240
▁esc	-7241
▁lang	-7242
radient	-7243
getResources	-7244
ho	-7245
Lon	-7246
Logging	-7247
Inputs	-7248
Invok	-7249
▁links	-7250
▁anchor	-7251
upd	-7252
▁getBy	-7253
▁formatted	-7254
rypto	-7255
Charset	-7256
Bindings	-7257
actions	-7258
Working	-7259
ynchronous	-7260
levant	-7261
Generates	-7262
cloud	-7263
▁resulting	-7264
unmodifiable	-7265
▁preferred	-7266
Wrap	-7267
Share	-7268
▁inject	-7269
dirs	-7270
Functions	-7271
▁Named	-7272
._2006.	-7273
multiply	-7274
SyntaxException	-7275
extract	-7276
Compilation	-7277
ulated	-7278
currency	-7279
Synchron	-7280
elocity	-7281
▁equivalent	-7282
▁Permission	-7283
▁Notification	-7284
▁Certificate	-7285
CTED	-7286
Arc	-7287
▁handles	-7288
COD	-7289
Rotation	-7290
primary	-7291
▁resolver	-7292
ingleton	-7293
▁optim	-7294
EP	-7295
QUAL	-7296
▁fieldId	-7297
Conditions	-7298
/{	-7299
rift	-7300
ultipart	-7301
▁-0	-7302
▁Template	-7303
▁MIN	-7304
Broker	-7305
ERENCE	-7306
lator	-7307
Capabilities	-7308
AMP	-7309
▁connections	-7310
aned	-7311
getView	-7312
ResourceGroup	-7313
MT	-7314
Radius	-7315
▁contentType	-7316
chain	-7317
setType	-7318
1",	-7319
retrieve	-7320
repository	-7321
esh	-7322
▁pod	-7323
addr	-7324
▁__	-7325
Pairs	-7326
▁serviceName	-7327
COLOR	-7328
Modification	-7329
Ring	-7330
▁getDefault	-7331
FieldName	-7332
Logs	-7333
setColor	-7334
URATION	-7335
mous	-7336
▁Syn	-7337
▁async	-7338
▁Progress	-7339
getCanonical	-7340
▁Post	-7341
1<	-7342
Under	-7343
▁There	-7344
▁sec	-7345
▁replaced	-7346
(",");	-7347
Expand	-7348
▁Each	-7349
▁Real	-7350
ampling	-7351
onymous	-7352
aff	-7353
metric	-7354
▁mis	-7355
upper	-7356
Deploy	-7357
toCharArray	-7358
getColor	-7359
vides	-7360
columns	-7361
▁comparison	-7362
▁percent	-7363
TLE	-7364
ograph	-7365
Concept	-7366
AF	-7367
exec	-7368
igure	-7369
▁Metadata	-7370
oral	-7371
Pur	-7372
bounds	-7373
▁literal	-7374
Insn	-7375
▁200	-7376
▁formatter	-7377
▁endIndex	-7378
(4);	-7379
evaluate	-7380
BAD	-7381
▁ME	-7382
tle	-7383
▁delimiter	-7384
Attach	-7385
ATA	-7386
▁Socket	-7387
▁takes	-7388
▁automatically	-7389
▁addTo	-7390
park	-7391
ReadOnly	-7392
signature	-7393
ULTI	-7394
Zoom	-7395
arante	-7396
EXCE	-7397
Push	-7398
▁addr	-7399
Specific	-7400
PAGE	-7401
▁book	-7402
TextField	-7403
▁ImmutableList	-7404
▁shard	-7405
▁interfaces	-7406
></	-7407
identifier	-7408
bsp	-7409
▁documentation	-7410
del	-7411
getPart	-7412
PASS	-7413
▁rad	-7414
FIER	-7415
▁getParent	-7416
▁comb	-7417
import	-7418
▁fails	-7419
():	-7420
▁mapper	-7421
ENSION	-7422
General	-7423
▁struct	-7424
score	-7425
copyOf	-7426
aker	-7427
control	-7428
▁padding	-7429
clusion	-7430
▁Sequence	-7431
Realm	-7432
▁cells	-7433
presentation	-7434
Touch	-7435
shape	-7436
Patterns	-7437
Pick	-7438
Pull	-7439
▁Db	-7440
Computes	-7441
ajor	-7442
Theme	-7443
())))	-7444
>>();	-7445
▁Also	-7446
▁describ	-7447
isNaN	-7448
Ca	-7449
▁later	-7450
▁commands	-7451
[3];	-7452
covered	-7453
Sibling	-7454
▁persistence	-7455
aps	-7456
▁trust	-7457
Coverage	-7458
Runner	-7459
zz	-7460
ks	-7461
Viol	-7462
poll	-7463
▁Bytes	-7464
chars	-7465
Est	-7466
inated	-7467
Pagination	-7468
install	-7469
gisters	-7470
QualifiedName	-7471
[1],	-7472
▁repo	-7473
comment	-7474
Plus	-7475
▁fore	-7476
mf	-7477
cludes	-7478
▁10;	-7479
={}	-7480
global	-7481
Configurations	-7482
ANY	-7483
▁Future	-7484
Original	-7485
▁WHERE	-7486
INTERNAL	-7487
gc	-7488
▁issue	-7489
▁cm	-7490
▁audio	-7491
sList	-7492
pow	-7493
MOVE	-7494
▁wrapped	-7495
ToRemove	-7496
▁"0	-7497
▁round	-7498
Two	-7499
getOwner	-7500
▁Link	-7501
▁FI	-7502
▁ins	-7503
2))	-7504
identity	-7505
anc	-7506
▁positioned	-7507
Rank	-7508
▁mappings	-7509
▁Top	-7510
Retrieve	-7511
numberOf	-7512
ACCESS	-7513
try	-7514
1[	-7515
LOAT	-7516
▁geometry	-7517
mx	-7518
Polygon	-7519
▁performed	-7520
▁primitive	-7521
Loads	-7522
Surface	-7523
▁Cursor	-7524
▁Plugin	-7525
Existing	-7526
LATE	-7527
parseLong	-7528
LAB	-7529
nbsp	-7530
Cance	-7531
poch	-7532
getOrder	-7533
candidate	-7534
----------------	-7535
Prim	-7536
▁dimensions	-7537
best	-7538
riend	-7539
<>	-7540
ALE	-7541
Sender	-7542
▁JsonObject	-7543
Distribution	-7544
dat	-7545
ampa	-7546
Restriction	-7547
prepareStatement	-7548
▁sr	-7549
▁includes	-7550
23	-7551
▁FileSystem	-7552
ANG	-7553
ampaign	-7554
▁remain	-7555
ocial	-7556
▁shell	-7557
Loading	-7558
▁NAME	-7559
▁evt	-7560
▁Only	-7561
Consum	-7562
Pipeline	-7563
venience	-7564
▁executed	-7565
▁fact	-7566
▁'0	-7567
ROW	-7568
▁hit	-7569
encoding	-7570
sFor	-7571
calculate	-7572
▁Delet	-7573
NOR	-7574
auto	-7575
▁ssl	-7576
▁0.0)	-7577
▁Describe	-7578
▁leaf	-7579
contact	-7580
Membership	-7581
-30	-7582
000000	-7583
▁supports	-7584
JS	-7585
:");	-7586
▁ast	-7587
most	-7588
▁near	-7589
▁detail	-7590
▁across	-7591
ragments	-7592
▁locations	-7593
sistent	-7594
▁enter	-7595
Extract	-7596
getAddress	-7597
ka	-7598
▁SO	-7599
>>()	-7600
Words	-7601
otential	-7602
notNull	-7603
MONTH	-7604
messages	-7605
▁successfully	-7606
Tmp	-7607
alyt	-7608
▁'{}'	-7609
▁Host	-7610
icro	-7611
8);	-7612
▁popup	-7613
VED	-7614
LDER	-7615
atory	-7616
Digits	-7617
SCRIPTION	-7618
workspace	-7619
▁typeName	-7620
WRITE	-7621
Offsets	-7622
.,	-7623
umbnail	-7624
▁images	-7625
▁accountName	-7626
uce	-7627
COMM	-7628
pacing	-7629
Handlers	-7630
xx	-7631
▁composite	-7632
▁sever	-7633
Include	-7634
▁partial	-7635
TOP	-7636
BLOCK	-7637
Multiple	-7638
Dimensions	-7639
ViewById	-7640
allet	-7641
shake	-7642
dot	-7643
▁never	-7644
▁trying	-7645
My	-7646
Commerce	-7647
▁terms	-7648
isNotEmpty	-7649
▁Region	-7650
getFeature	-7651
pective	-7652
QUI	-7653
▁Tuple	-7654
TRANS	-7655
mm	-7656
Should	-7657
▁belong	-7658
▁ui	-7659
sol	-7660
encoded	-7661
▁generator	-7662
atures	-7663
▁help	-7664
▁cn	-7665
AndGet	-7666
[3]	-7667
Grouper	-7668
Js	-7669
▁STATE	-7670
getEvent	-7671
Req	-7672
ibern	-7673
Compiler	-7674
ToAdd	-7675
IMP	-7676
LOB	-7677
▁Stack	-7678
▁attach	-7679
lele	-7680
ances	-7681
Disabled	-7682
Attempts	-7683
LEVEL	-7684
getEntry	-7685
ableValue	-7686
getPoint	-7687
▁Sc	-7688
▁scanner	-7689
Pixels	-7690
()[	-7691
▁ranges	-7692
▁configure	-7693
apse	-7694
Ready	-7695
▁refer	-7696
▁resourceName	-7697
crease	-7698
▁Lists	-7699
▁Sup	-7700
Increment	-7701
▁General	-7702
alleng	-7703
scribe	-7704
JB	-7705
imits	-7706
depth	-7707
ADBException	-7708
export	-7709
▁ev	-7710
Sorted	-7711
Indicator	-7712
▁vertices	-7713
(3);	-7714
500",	-7715
Than	-7716
▁weights	-7717
getAd	-7718
rono	-7719
▁Report	-7720
bucket	-7721
Creator	-7722
▁Device	-7723
shutdown	-7724
INFINITY	-7725
ClassNotFound	-7726
▁Hashtable	-7727
▁"(	-7728
▁expressions	-7729
▁Resources	-7730
CM	-7731
("}");	-7732
▁Target	-7733
▁Geometry	-7734
allery	-7735
▁tw	-7736
▁fully	-7737
▁assertFalse	-7738
MethodException	-7739
gree	-7740
Channels	-7741
Windows	-7742
5)	-7743
Css	-7744
Hints	-7745
▁getLogger	-7746
parseDouble	-7747
▁exec	-7748
tile	-7749
moveTo	-7750
enum	-7751
▁redirect	-7752
Terms	-7753
sheet	-7754
Require	-7755
essaging	-7756
▁LinkedHashSet	-7757
▁Lo	-7758
pending	-7759
unn	-7760
▁2));	-7761
acc	-7762
▁indexOf	-7763
▁normalized	-7764
▁large	-7765
Nested	-7766
submit	-7767
▁-0500",	-7768
groups	-7769
Indent	-7770
pet	-7771
getCl	-7772
orphaned	-7773
isTraceEnabled	-7774
ibernate	-7775
▁som	-7776
▁Tool	-7777
rav	-7778
ignore	-7779
Flush	-7780
▁longer	-7781
▁animation	-7782
Pdf	-7783
oler	-7784
Templates	-7785
Answer	-7786
ingClass	-7787
▁angle	-7788
uation	-7789
booleanValue	-7790
Codec	-7791
media	-7792
Policies	-7793
MEDI	-7794
sures	-7795
▁TreeSet	-7796
Dirs	-7797
Mail	-7798
oices	-7799
SCHEM	-7800
84	-7801
rand	-7802
cf	-7803
▁temporary	-7804
Rad	-7805
▁KEY	-7806
▁samples	-7807
OPER	-7808
sorted	-7809
Go	-7810
ipt	-7811
listFiles	-7812
▁appro	-7813
Overri	-7814
foo	-7815
Classifier	-7816
▁cipher	-7817
setId	-7818
Particip	-7819
rong	-7820
Performs	-7821
ivery	-7822
chase	-7823
ATEG	-7824
Implementation	-7825
Bin	-7826
TING	-7827
▁steps	-7828
▁qualified	-7829
▁primaryKey	-7830
Live	-7831
Setup	-7832
▁Bluetooth	-7833
▁{},	-7834
Samples	-7835
ality	-7836
▁Func	-7837
Facade	-7838
▁Meta	-7839
getParameters	-7840
Partial	-7841
▁itr	-7842
OLE	-7843
urve	-7844
▁IDs	-7845
▁getData	-7846
Partitions	-7847
cu	-7848
▁equality	-7849
adoop	-7850
▁represented	-7851
Suite	-7852
yth	-7853
▁sem	-7854
oordinator	-7855
headers	-7856
Accounts	-7857
3(	-7858
URN	-7859
ivot	-7860
▁Axis	-7861
Builds	-7862
▁recent	-7863
▁countBy	-7864
("{	-7865
addMessage	-7866
chan	-7867
Routing	-7868
Ws	-7869
▁&=	-7870
▁consum	-7871
▁getType	-7872
Absent	-7873
▁cast	-7874
Calculates	-7875
SYN	-7876
Transformation	-7877
CREATE	-7878
Submission	-7879
1(	-7880
FIED	-7881
jac	-7882
CENTER	-7883
getLeft	-7884
Calls	-7885
statement	-7886
menu	-7887
▁mb	-7888
▁clause	-7889
▁coords	-7890
RUN	-7891
DP	-7892
Horizontal	-7893
3-12	-7894
SHORT	-7895
ained	-7896
NAMESPACE	-7897
sv	-7898
▁cms	-7899
▁"1	-7900
anned	-7901
GED	-7902
ymbolic	-7903
▁modules	-7904
war	-7905
▁returnValue	-7906
▁cfg	-7907
Cnt	-7908
Categories	-7909
▁My	-7910
▁"2013-12	-7911
▁"\\	-7912
▁"2013-12-30	-7913
Jobs	-7914
Av	-7915
Best	-7916
appendChild	-7917
rediction	-7918
year	-7919
ableFuture	-7920
▁');	-7921
▁rank	-7922
apiVersion	-7923
div	-7924
Days	-7925
translate	-7926
osen	-7927
Claim	-7928
PackageName	-7929
▁preference	-7930
geom	-7931
cos	-7932
▁attached	-7933
85	-7934
phere	-7935
▁Count	-7936
▁Gui	-7937
StoreException	-7938
▁Sol	-7939
Fact	-7940
▁packages	-7941
Rew	-7942
▁Platform	-7943
▁depending	-7944
topic	-7945
▁Address	-7946
▁adapt	-7947
▁scheme	-7948
▁counts	-7949
Commands	-7950
seq	-7951
▁secret	-7952
▁variant	-7953
▁Trace	-7954
Initialize	-7955
getSuper	-7956
setVisibility	-7957
Clip	-7958
inality	-7959
64.	-7960
Redirect	-7961
SEC	-7962
plicas	-7963
AttributeValue	-7964
ITI	-7965
DSS	-7966
big	-7967
▁cnt	-7968
ffine	-7969
▁cos	-7970
getContainer	-7971
Latch	-7972
_3	-7973
▁UTF	-7974
versal	-7975
illiseconds	-7976
▁IJava	-7977
▁except	-7978
▁isn	-7979
Into	-7980
setMax	-7981
AML	-7982
Encode	-7983
ggle	-7984
Malformed	-7985
runtime	-7986
CLU	-7987
Animator	-7988
▁dependencies	-7989
▁OR	-7990
EXCEPTION	-7991
setSelection	-7992
('/	-7993
Tries	-7994
lated	-7995
▁logged	-7996
▁Sib	-7997
.";	-7998
▁broker	-7999
▁waitFor	-8000
▁specification	-8001
▁altern	-8002
munic	-8003
▁lists	-8004
matrix	-8005
▁ec	-8006
Slice	-8007
.<	-8008
alette	-8009
FACT	-8010
▁bad	-8011
direction	-8012
▁several	-8013
-01";	-8014
▁iteration	-8015
associ	-8016
vertex	-8017
VISIBLE	-8018
UCT	-8019
tlement	-8020
▁CP	-8021
lv	-8022
▁imp	-8023
setStatus	-8024
33	-8025
▁alert	-8026
progress	-8027
▁sequences	-8028
▁drag	-8029
00);	-8030
OrEmpty	-8031
▁Audio	-8032
Producer	-8033
▁closing	-8034
▁extensions	-8035
LF	-8036
ToolTip	-8037
000);	-8038
▁rotation	-8039
▁geo	-8040
▁pages	-8041
▁Lock	-8042
▁AR	-8043
▁sq	-8044
craft	-8045
Assertion	-8046
pu	-8047
▁copied	-8048
bon	-8049
▁quote	-8050
▁Selection	-8051
getIdentifier	-8052
▁12:	-8053
▁Bad	-8054
Mon	-8055
▁rv	-8056
Interpol	-8057
MARY	-8058
indent	-8059
modified	-8060
▁getNext	-8061
;");	-8062
▁destroy	-8063
iring	-8064
▁fit	-8065
Additional	-8066
▁InetAddress	-8067
▁immediately	-8068
▁syntax	-8069
▁throwable	-8070
▁Directory	-8071
redicates	-8072
▁boot	-8073
getTitle	-8074
aching	-8075
ething	-8076
60	-8077
Console	-8078
LOCATION	-8079
▁reverse	-8080
Hub	-8081
Fraction	-8082
▁warning	-8083
interrupt	-8084
LABEL	-8085
▁rate	-8086
ircle	-8087
ognition	-8088
▁dc	-8089
Recent	-8090
▁'-	-8091
▁lib	-8092
▁{};	-8093
▁substit	-8094
▁displayed	-8095
getFirstChild	-8096
floor	-8097
▁pred	-8098
dfs	-8099
imation	-8100
TimeZone	-8101
Invoke	-8102
ILI	-8103
agent	-8104
▁interpret	-8105
▁impl	-8106
LOCAL	-8107
Typed	-8108
▁Parser	-8109
Now	-8110
MODI	-8111
dialog	-8112
Browser	-8113
▁AssertionError	-8114
MEM	-8115
▁declaration	-8116
bc	-8117
ITY	-8118
symbol	-8119
requireNonNull	-8120
cn	-8121
ATCH	-8122
ORIZ	-8123
Dispatcher	-8124
▁coll	-8125
sys	-8126
WIDTH	-8127
AndSet	-8128
BYTES	-8129
▁ports	-8130
ptide	-8131
udent	-8132
OFFSET	-8133
▁installed	-8134
▁3:	-8135
▁functions	-8136
Enumeration	-8137
Alive	-8138
▁encounter	-8139
Bond	-8140
▁inher	-8141
lide	-8142
sk	-8143
CONTEXT	-8144
▁converter	-8145
Secure	-8146
Confirm	-8147
Expressions	-8148
WL	-8149
▁3);	-8150
ercise	-8151
▁prior	-8152
▁dataSource	-8153
ooter	-8154
▁SibTr	-8155
▁GridData	-8156
PUB	-8157
ACKAGE	-8158
▁Dat	-8159
Sound	-8160
▁works	-8161
userAgent	-8162
inv	-8163
BUFFER	-8164
▁ClassNotFound	-8165
▁FinderPath	-8166
Pt	-8167
YEAR	-8168
Known	-8169
vation	-8170
ised	-8171
▁candidates	-8172
Ax	-8173
irty	-8174
EntityManager	-8175
Availability	-8176
cert	-8177
binary	-8178
pixel	-8179
EntryId	-8180
▁Join	-8181
bservation	-8182
Sensor	-8183
▁shutdown	-8184
grees	-8185
JsonObject	-8186
ons	-8187
▁Category	-8188
▁projects	-8189
Deletes	-8190
▁enough	-8191
▁regex	-8192
AsStream	-8193
▁Rex	-8194
▁views	-8195
▁NodeList	-8196
ITEM	-8197
▁[{}	-8198
Force	-8199
Already	-8200
▁Invocation	-8201
URLException	-8202
ENABLED	-8203
ational	-8204
logs	-8205
Getter	-8206
LayoutParams	-8207
▁sheet	-8208
Special	-8209
Ord	-8210
▁So	-8211
▁po	-8212
fullTypeName	-8213
Div	-8214
▁5;	-8215
SocketAddress	-8216
▁sv	-8217
tableName	-8218
tein	-8219
izedType	-8220
▁intersection	-8221
SCO	-8222
KET	-8223
STORE	-8224
Upgrade	-8225
getBounds	-8226
▁).	-8227
HOST	-8228
getKind	-8229
========	-8230
alytics	-8231
▁Option	-8232
Clock	-8233
▁classLoader	-8234
wards	-8235
la	-8236
▁camera	-8237
newArrayList	-8238
▁1024	-8239
▁4);	-8240
▁Mark	-8241
IfAbsent	-8242
Vm	-8243
▁Cloud	-8244
usage	-8245
orElse	-8246
▁insets	-8247
ComboBox	-8248
isFile	-8249
▁getInstance	-8250
getNumberOf	-8251
Preferred	-8252
▁analysis	-8253
▁Comparator	-8254
getRaw	-8255
socket	-8256
ILD	-8257
BA	-8258
aleo	-8259
pell	-8260
DIRECT	-8261
▁deploy	-8262
EE	-8263
("#	-8264
Projects	-8265
Self	-8266
▁lex	-8267
IndexOutOfBounds	-8268
▁std	-8269
▁deleg	-8270
Cycle	-8271
▁Flow	-8272
iate	-8273
▁outside	-8274
▁Relation	-8275
▁projection	-8276
js	-8277
loop	-8278
BigDecimal	-8279
▁video	-8280
MAL	-8281
TIES	-8282
▁VALUE	-8283
connected	-8284
rum	-8285
▁IS	-8286
▁stage	-8287
SDK	-8288
anoTime	-8289
▁DO	-8290
login	-8291
▁ERROR	-8292
Colors	-8293
Vals	-8294
flag	-8295
▁visitor	-8296
constraint	-8297
ocused	-8298
▁vals	-8299
▁describe	-8300
operator	-8301
Respon	-8302
▁IOUtils	-8303
RECORD	-8304
"};	-8305
▁Draw	-8306
▁sel	-8307
▁Style	-8308
▁util	-8309
▁AT	-8310
SECOND	-8311
Gap	-8312
Ontology	-8313
erve	-8314
▁QName	-8315
▁Position	-8316
ba	-8317
▁canonical	-8318
▁logical	-8319
getPro	-8320
waitFor	-8321
Light	-8322
setInt	-8323
StartTime	-8324
Quote	-8325
▁zoom	-8326
Cells	-8327
▁Contact	-8328
▁cleanup	-8329
allowed	-8330
BB	-8331
Escape	-8332
▁IStatus	-8333
readInt	-8334
Authentic	-8335
▁ie	-8336
MARK	-8337
Replication	-8338
ager	-8339
8)	-8340
CALL	-8341
▁normalize	-8342
GENER	-8343
Replica	-8344
getRight	-8345
2));	-8346
Arn	-8347
▁/=	-8348
Sink	-8349
▁Di	-8350
NodeId	-8351
SPON	-8352
tegration	-8353
▁2]	-8354
▁useful	-8355
way	-8356
▁Setting	-8357
SUP	-8358
iases	-8359
▁Output	-8360
Seed	-8361
Persist	-8362
6,	-8363
▁Any	-8364
oss	-8365
img	-8366
▁train	-8367
Delivery	-8368
▁testing	-8369
▁interpol	-8370
CoreException	-8371
Letter	-8372
Vec	-8373
pid	-8374
▁sym	-8375
▁lhs	-8376
intent	-8377
matched	-8378
▁Android	-8379
Detector	-8380
paginator	-8381
nextPageLink	-8382
▁4,	-8383
getFont	-8384
▁addresses	-8385
▁Shape	-8386
▁guarante	-8387
Privileged	-8388
Instanti	-8389
▁0:	-8390
home	-8391
ACTIVE	-8392
Quantity	-8393
▁ear	-8394
Review	-8395
▁grant	-8396
▁statements	-8397
▁getResource	-8398
▁Tile	-8399
▁built	-8400
unknown	-8401
▁detected	-8402
cd	-8403
Star	-8404
▁dt	-8405
atten	-8406
achable	-8407
normalize	-8408
▁combined	-8409
ansion	-8410
▁power	-8411
Secondary	-8412
missing	-8413
ledge	-8414
unnel	-8415
author	-8416
eros	-8417
▁maps	-8418
FindBy	-8419
CLIENT	-8420
▁ready	-8421
bot	-8422
tick	-8423
verbose	-8424
Determine	-8425
▁distribution	-8426
game	-8427
▁parents	-8428
person	-8429
getUn	-8430
▁')	-8431
SESSION	-8432
Building	-8433
!",	-8434
▁signal	-8435
▁extended	-8436
errors	-8437
ium	-8438
▁EMPTY	-8439
Generated	-8440
eff	-8441
Turn	-8442
▁listBy	-8443
▁pid	-8444
shared	-8445
contents	-8446
Levels	-8447
MX	-8448
cluding	-8449
getSchema	-8450
addContent	-8451
Overlay	-8452
▁preview	-8453
▁removes	-8454
illableValue	-8455
MAIN	-8456
▁writing	-8457
QueryParam	-8458
▁implemented	-8459
Logical	-8460
(1)	-8461
Rendering	-8462
sent	-8463
▁colors	-8464
icense	-8465
Initialized	-8466
Foreground	-8467
://	-8468
Fast	-8469
Pr	-8470
verify	-8471
MISSION	-8472
cm	-8473
EST	-8474
Facet	-8475
eleph	-8476
interval	-8477
▁Delete	-8478
Processes	-8479
▁})	-8480
awt	-8481
▁machine	-8482
newBuilder	-8483
rection	-8484
which	-8485
utures	-8486
Tail	-8487
gether	-8488
▁payment	-8489
Starting	-8490
DELI	-8491
fragment	-8492
▁txt	-8493
Negative	-8494
▁strategy	-8495
▁Chat	-8496
▁sy	-8497
Grant	-8498
vie	-8499
arshal	-8500
▁room	-8501
Authority	-8502
Evaluator	-8503
getZ	-8504
▁getUser	-8505
alpha	-8506
sessment	-8507
2]	-8508
▁rm	-8509
plus	-8510
'))	-8511
▁Authentication	-8512
["	-8513
Decision	-8514
actoring	-8515
CAP	-8516
Sizes	-8517
TEGER	-8518
▁half	-8519
_);	-8520
▁union	-8521
▁subset	-8522
TASK	-8523
iance	-8524
DOUBLE	-8525
Gui	-8526
▁Spring	-8527
aa	-8528
cms	-8529
addChild	-8530
sym	-8531
ptr	-8532
▁similar	-8533
getReference	-8534
_1>	-8535
free	-8536
ClickListener	-8537
quote	-8538
isNotBlank	-8539
jsonObject	-8540
▁Var	-8541
▁duplicate	-8542
Hidden	-8543
getShort	-8544
▁comparator	-8545
SWT	-8546
uman	-8547
▁seen	-8548
Lex	-8549
Raster	-8550
▁entire	-8551
▁ratio	-8552
▁StringWriter	-8553
ysql	-8554
▁opts	-8555
ARGET	-8556
▁correctly	-8557
getElements	-8558
OPEN	-8559
Altern	-8560
RequestBuilder	-8561
▁pick	-8562
▁fast	-8563
▁15	-8564
▁Scan	-8565
getPage	-8566
DAP	-8567
processor	-8568
▁classNameId	-8569
▁dn	-8570
▁Subject	-8571
▁SI	-8572
Reporter	-8573
Issue	-8574
▁maybe	-8575
▁occurs	-8576
▁below	-8577
lp	-8578
olt	-8579
▁(!"	-8580
Checksum	-8581
▁"</	-8582
▁replica	-8583
▁Workflow	-8584
race	-8585
▁refers	-8586
▁","	-8587
▁KeyEvent	-8588
Deserial	-8589
▁Jar	-8590
getJob	-8591
▁df	-8592
8(	-8593
INPUT	-8594
zero	-8595
Insets	-8596
simple	-8597
ErrorCode	-8598
ocab	-8599
anging	-8600
[5	-8601
wall	-8602
▁mContext	-8603
Projection	-8604
scriptions	-8605
▁serializer	-8606
Coll	-8607
Health	-8608
SOL	-8609
▁FileUtils	-8610
Frequency	-8611
(0),	-8612
inating	-8613
olerance	-8614
scal	-8615
▁partitions	-8616
FieldBuilder	-8617
heet	-8618
▁cols	-8619
moval	-8620
XMLStreamReader	-8621
executeUpdate	-8622
JC	-8623
Written	-8624
').	-8625
Persistent	-8626
Own	-8627
startIndex	-8628
asc	-8629
▁Match	-8630
▁cover	-8631
ious	-8632
mem	-8633
Beans	-8634
▁Sorted	-8635
<?>[]	-8636
bb	-8637
aper	-8638
▁Swift	-8639
▁Language	-8640
saved	-8641
OrCreate	-8642
riterion	-8643
▁Batch	-8644
BigInteger	-8645
Hosts	-8646
▁Names	-8647
▁cacheResult	-8648
px	-8649
Regex	-8650
▁visited	-8651
Capture	-8652
STAMP	-8653
KeyValue	-8654
▁JS	-8655
NECT	-8656
Balan	-8657
Exact	-8658
HeaderParams	-8659
NET	-8660
▁"&	-8661
reated	-8662
setData	-8663
▁TreeMap	-8664
▁Attributes	-8665
▁linked	-8666
▁family	-8667
dera	-8668
Quota	-8669
▁Domain	-8670
SCHEMA	-8671
There	-8672
▁IPath	-8673
Quiet	-8674
anode	-8675
Lifecycle	-8676
Queries	-8677
▁decoded	-8678
▁userName	-8679
▁getFile	-8680
GUI	-8681
▁sending	-8682
Nanos	-8683
Charsets	-8684
▁inventory	-8685
getJava	-8686
getParentFile	-8687
▁IC	-8688
ILITY	-8689
isPro	-8690
▁Memory	-8691
▁serialized	-8692
cture	-8693
▁days	-8694
getBean	-8695
▁pol	-8696
agic	-8697
getDisplayName	-8698
localVar	-8699
MULTI	-8700
addAttribute	-8701
▁mv	-8702
email	-8703
ToBe	-8704
▁compiler	-8705
Contains	-8706
▁outputStream	-8707
GC	-8708
▁HttpResponse	-8709
Dump	-8710
Styles	-8711
publish	-8712
▁categories	-8713
Modify	-8714
Aware	-8715
ConverterUtil	-8716
Mock	-8717
▁Global	-8718
Ok	-8719
idence	-8720
IMAGE	-8721
▁iterable	-8722
▁Thus	-8723
logError	-8724
▁transformation	-8725
Ge	-8726
REE	-8727
Heap	-8728
Aspect	-8729
DM	-8730
Wiki	-8731
201	-8732
Apps	-8733
Exceptions	-8734
▁ax	-8735
54	-8736
▁certain	-8737
▁XPath	-8738
sin	-8739
▁0));	-8740
▁queries	-8741
Keep	-8742
ORTED	-8743
Cipher	-8744
omial	-8745
▁Structure	-8746
▁AL	-8747
toHexString	-8748
Annotated	-8749
urable	-8750
▁highest	-8751
checkNotNull	-8752
allenge	-8753
▁notifications	-8754
_4	-8755
.0,	-8756
inger	-8757
Username	-8758
▁exclude	-8759
Help	-8760
Distinct	-8761
Serializable	-8762
oftware	-8763
▁chat	-8764
Comments	-8765
▁Change	-8766
Stub	-8767
mkdirs	-8768
ops	-8769
see	-8770
▁Role	-8771
Detect	-8772
Steps	-8773
▁TABLE	-8774
▁secondary	-8775
▁design	-8776
▁reached	-8777
cb	-8778
external	-8779
Calculate	-8780
▁checksum	-8781
thetic	-8782
hood	-8783
▁marked	-8784
▁authorization	-8785
Stored	-8786
ravity	-8787
methodName	-8788
atter	-8789
filters	-8790
Discovery	-8791
▁mail	-8792
▁average	-8793
riendly	-8794
▁browser	-8795
▁question	-8796
▁difference	-8797
(3,	-8798
dom	-8799
ACH	-8800
orer	-8801
▁aux	-8802
volume	-8803
Outline	-8804
▁regular	-8805
packet	-8806
nanoTime	-8807
WorkRequest	-8808
Destroy	-8809
TagName	-8810
▁dr	-8811
▁general	-8812
ROLE	-8813
Devices	-8814
SPONSE	-8815
▁whole	-8816
▁Timestamp	-8817
Alarm	-8818
using	-8819
VID	-8820
▁suc	-8821
Pin	-8822
▁journal	-8823
Decode	-8824
▁buffered	-8825
Starts	-8826
▁vec	-8827
Possible	-8828
("'	-8829
Business	-8830
▁OAuth	-8831
Analyzer	-8832
▁statistics	-8833
▁Vertex	-8834
Curve	-8835
Buffers	-8836
getTask	-8837
▁mService	-8838
Repl	-8839
▁pad	-8840
▁Header	-8841
shift	-8842
▁Res	-8843
snapshot	-8844
DR	-8845
▁happen	-8846
DOCUMENT	-8847
▁Det	-8848
▁organization	-8849
rout	-8850
▁Symbol	-8851
Front	-8852
CacheUtil	-8853
fact	-8854
route	-8855
▁hostname	-8856
▁slice	-8857
▁Swing	-8858
virt	-8859
inputStream	-8860
uages	-8861
Boundary	-8862
▁attachment	-8863
hook	-8864
payload	-8865
▁getChild	-8866
reverse	-8867
JP	-8868
Severity	-8869
Generation	-8870
▁completion	-8871
ToUse	-8872
duration	-8873
KB	-8874
cfg	-8875
▁Constant	-8876
setRequest	-8877
("&	-8878
SK	-8879
Ack	-8880
setParameter	-8881
▁country	-8882
XPath	-8883
▁Signature	-8884
03	-8885
RT	-8886
▁closest	-8887
fd	-8888
throw	-8889
udera	-8890
getBody	-8891
]");	-8892
▁concat	-8893
Vertices	-8894
Boot	-8895
TRY	-8896
▁aggregate	-8897
Identifiers	-8898
▁individual	-8899
OVER	-8900
atable	-8901
isation	-8902
Where	-8903
setLength	-8904
abet	-8905
amel	-8906
▁graphics	-8907
EXTRA	-8908
▁dictionary	-8909
AXB	-8910
peer	-8911
▁Doc	-8912
getMetadata	-8913
assertEquals	-8914
getURI	-8915
destroy	-8916
▁EN	-8917
TypeProperties	-8918
OLD	-8919
▁able	-8920
Sn	-8921
▁pag	-8922
▁providers	-8923
REA	-8924
quipment	-8925
ordinal	-8926
28	-8927
Delimiter	-8928
getModule	-8929
NA	-8930
dev	-8931
ACTI	-8932
vided	-8933
▁cloud	-8934
▁ones	-8935
(":")	-8936
▁proc	-8937
Literals	-8938
sues	-8939
26	-8940
▁bi	-8941
ROLL	-8942
▁Proxy	-8943
▁ae	-8944
▁wrong	-8945
getTotal	-8946
ominal	-8947
▁Persistence	-8948
typeName	-8949
▁Const	-8950
getDate	-8951
▁translation	-8952
Scheduler	-8953
ris	-8954
Actual	-8955
amount	-8956
Defaults	-8957
▁front	-8958
positor	-8959
Coordinates	-8960
Protos	-8961
▁Html	-8962
▁Titan	-8963
▁Identity	-8964
▁texture	-8965
▁exactly	-8966
▁credential	-8967
jj	-8968
▁js	-8969
Defs	-8970
▁tries	-8971
lobals	-8972
▁unexpected	-8973
UGIN	-8974
▁Button	-8975
lin	-8976
▁digits	-8977
DEP	-8978
ster	-8979
SERT	-8980
members	-8981
▁DataType	-8982
OWL	-8983
ANNOT	-8984
▁geom	-8985
Outputs	-8986
Weights	-8987
emf	-8988
FICATION	-8989
▁FS	-8990
▁patterns	-8991
rive	-8992
Quality	-8993
▁.<	-8994
thunder	-8995
Aut	-8996
Servers	-8997
▁iv	-8998
sBuilder	-8999
▁logging	-9000
▁AM	-9001
getTransaction	-9002
PACKAGE	-9003
cloudera	-9004
Registered	-9005
▁Ign	-9006
▁red	-9007
ras	-9008
▁directories	-9009
▁exchange	-9010
▁mult	-9011
getIs	-9012
▁compatible	-9013
Neighb	-9014
ognized	-9015
()");	-9016
getNew	-9017
;&	-9018
Recovery	-9019
▁particip	-9020
▁dom	-9021
Performed	-9022
▁Me	-9023
Visit	-9024
Processed	-9025
VITY	-9026
▁vars	-9027
catalog	-9028
▁together	-9029
11.	-9030
celer	-9031
Utf	-9032
FIR	-9033
ablish	-9034
mid	-9035
parsed	-9036
▁opBuilder	-9037
delet	-9038
Between	-9039
++);	-9040
▁setter	-9041
AVA	-9042
OLEAN	-9043
Optim	-9044
atives	-9045
hasMoreTokens	-9046
Minimum	-9047
TextUtils	-9048
▁20	-9049
Journal	-9050
Currency	-9051
▁jobs	-9052
▁handling	-9053
dif	-9054
variant	-9055
erator	-9056
Symbols	-9057
Allocation	-9058
▁16)	-9059
▁properly	-9060
Regions	-9061
ricted	-9062
sig	-9063
OUTPUT	-9064
Containers	-9065
▁LE	-9066
orable	-9067
▁responses	-9068
▁Rec	-9069
▁precision	-9070
▁SAXException	-9071
▁beginning	-9072
▁typ	-9073
isArray	-9074
thunderhead	-9075
KED	-9076
▁devices	-9077
asing	-9078
▁heap	-9079
getDouble	-9080
getPlayer	-9081
pk	-9082
LISH	-9083
Dom	-9084
Waiting	-9085
Compatible	-9086
▁documents	-9087
▁performance	-9088
(1).	-9089
Ship	-9090
▁Git	-9091
artifact	-9092
▁numeric	-9093
▁building	-9094
ti	-9095
▁yy	-9096
▁speed	-9097
▁pp	-9098
Cred	-9099
TITLE	-9100
getOrig	-9101
▁formula	-9102
▁ci	-9103
sibly	-9104
Balance	-9105
NodeType	-9106
NG	-9107
▁computed	-9108
EQUAL	-9109
256	-9110
▁tm	-9111
ritical	-9112
▁Complex	-9113
2",	-9114
HOUR	-9115
▁NUM	-9116
Instant	-9117
Testing	-9118
Immutable	-9119
getBundle	-9120
Bridge	-9121
EXTENSION	-9122
▁pipeline	-9123
▁resolution	-9124
digest	-9125
▁offsets	-9126
VATE	-9127
Country	-9128
marker	-9129
▁mCurrent	-9130
▁localVarAccept	-9131
▁retrieved	-9132
describe	-9133
]).	-9134
ding	-9135
▁LDAP	-9136
▁revision	-9137
relative	-9138
▁rb	-9139
▁annotated	-9140
getClassName	-9141
ane	-9142
1");	-9143
setContent	-9144
addTo	-9145
FAILURE	-9146
"})	-9147
CONNECTION	-9148
complet	-9149
was	-9150
urvey	-9151
▁World	-9152
▁assertThat	-9153
▁TO	-9154
ird	-9155
filePath	-9156
Deleg	-9157
unmodifiableList	-9158
}/	-9159
▁cent	-9160
▁endTime	-9161
DY	-9162
CATEG	-9163
etime	-9164
tensor	-9165
Receive	-9166
Inspector	-9167
▁cv	-9168
CY	-9169
▁Game	-9170
atar	-9171
▁SAML	-9172
license	-9173
Compares	-9174
abc	-9175
Contexts	-9176
▁hashCode	-9177
Representation	-9178
arger	-9179
▁alignment	-9180
Positive	-9181
DEFIN	-9182
▁validator	-9183
WH	-9184
DISP	-9185
▁sink	-9186
riggers	-9187
UNIT	-9188
pectrum	-9189
uggestion	-9190
Stem	-9191
▁watch	-9192
ALLOW	-9193
▁calc	-9194
ensure	-9195
▁channels	-9196
tail	-9197
▁Edge	-9198
addAction	-9199
Invoice	-9200
TEMPLATE	-9201
otionEvent	-9202
bad	-9203
▁home	-9204
▁polygon	-9205
ISO	-9206
▁1),	-9207
created	-9208
specific	-9209
▁definitions	-9210
alyze	-9211
uracy	-9212
Initializes	-9213
trigger	-9214
Shortcut	-9215
anit	-9216
elephony	-9217
▁prim	-9218
OTH	-9219
aemon	-9220
▁unless	-9221
▁60	-9222
Replacement	-9223
▁te	-9224
Adapt	-9225
SPECI	-9226
▁Binding	-9227
▁disable	-9228
getFormat	-9229
▁14	-9230
OAuth	-9231
Proposal	-9232
MOD	-9233
▁absent	-9234
getModifiers	-9235
(-1);	-9236
▁skipped	-9237
▁es	-9238
Am	-9239
fp	-9240
rew	-9241
▁phone	-9242
ummaries	-9243
▁swap	-9244
fromJson	-9245
▁Multiple	-9246
▁MO	-9247
COR	-9248
INITI	-9249
PASSWORD	-9250
Duplicate	-9251
getAccess	-9252
NotSupported	-9253
Bluetooth	-9254
HAND	-9255
MBean	-9256
marks	-9257
▁runs	-9258
printf	-9259
▁share	-9260
▁Example	-9261
DEN	-9262
▁overlap	-9263
Statements	-9264
▁overridden	-9265
▁FinderCacheUtil	-9266
Streams	-9267
rottle	-9268
Runs	-9269
Canceled	-9270
Documents	-9271
▁expanded	-9272
Imp	-9273
NotifyChanged	-9274
origin	-9275
DEFINED	-9276
Cancelled	-9277
▁Descri	-9278
▁Ro	-9279
▁submit	-9280
addProperty	-9281
▁Look	-9282
urther	-9283
▁boundary	-9284
Canvas	-9285
▁taken	-9286
▁translate	-9287
▁mx	-9288
arguments	-9289
Like	-9290
sa	-9291
.*	-9292
(':	-9293
DisplayName	-9294
Restore	-9295
Sys	-9296
▁qualifier	-9297
acceptLanguage	-9298
▁sin	-9299
served	-9300
▁simply	-9301
aptor	-9302
▁recover	-9303
prite	-9304
▁removing	-9305
FileNotFound	-9306
lec	-9307
▁AC	-9308
ounce	-9309
▁rollback	-9310
CODING	-9311
forward	-9312
▁console	-9313
▁CoreException	-9314
▁Async	-9315
▁attrib	-9316
▁outputs	-9317
dependent	-9318
EventListener	-9319
SB	-9320
SAML	-9321
ibraries	-9322
▁=>	-9323
▁having	-9324
getPrimary	-9325
▁cycle	-9326
▁Current	-9327
▁separate	-9328
Fully	-9329
Quick	-9330
▁Predicate	-9331
etype	-9332
ErrorException	-9333
TOM	-9334
tcn	-9335
▁'\\	-9336
iants	-9337
▁Site	-9338
▁coverage	-9339
▁rand	-9340
toFile	-9341
FILL	-9342
▁cross	-9343
▁Useful	-9344
atic	-9345
ongo	-9346
Copies	-9347
▁dead	-9348
single	-9349
Built	-9350
▁SH	-9351
ardware	-9352
Dem	-9353
▁separated	-9354
DBG	-9355
▁Mutable	-9356
anning	-9357
apon	-9358
▁STR	-9359
getCom	-9360
▁nextPageLink	-9361
▁UP	-9362
Buttons	-9363
Controls	-9364
▁Des	-9365
realm	-9366
sun	-9367
▁Binary	-9368
▁Please	-9369
Structured	-9370
ippet	-9371
Blocking	-9372
▁By	-9373
▁COL	-9374
▁tax	-9375
estination	-9376
land	-9377
SEARCH	-9378
▁Constraint	-9379
getDimension	-9380
▁Mock	-9381
adapter	-9382
commendation	-9383
PREF	-9384
▁compile	-9385
Need	-9386
▁arch	-9387
listBy	-9388
vanced	-9389
Defn	-9390
STY	-9391
erts	-9392
ycler	-9393
▁encryption	-9394
Initializer	-9395
▁orientation	-9396
TRACE	-9397
▁invalidate	-9398
uniqueResult	-9399
,"	-9400
Rex	-9401
▁pref	-9402
RESPONSE	-9403
StringBuilder	-9404
("--	-9405
▁stores	-9406
ColumnName	-9407
▁rt	-9408
Until	-9409
getStream	-9410
▁Plot	-9411
consume	-9412
afka	-9413
▁Hive	-9414
Shadow	-9415
Scalar	-9416
(5	-9417
lastModified	-9418
Pol	-9419
▁cx	-9420
▁Operator	-9421
▁Ar	-9422
ERS	-9423
background	-9424
Extent	-9425
Occur	-9426
plot	-9427
Thing	-9428
▁10)	-9429
guard	-9430
Exchange	-9431
▁descriptors	-9432
ze	-9433
Physical	-9434
Slots	-9435
Train	-9436
hex	-9437
allocate	-9438
▁64	-9439
EventType	-9440
▁comma	-9441
Damage	-9442
▁pd	-9443
▁claim	-9444
positories	-9445
orian	-9446
mapped	-9447
cheduling	-9448
ainten	-9449
written	-9450
▁Concurrent	-9451
▁CR	-9452
getAccount	-9453
▁JDBC	-9454
▁live	-9455
NI	-9456
▁"")	-9457
▁fd	-9458
band	-9459
Quietly	-9460
Produces	-9461
▁makes	-9462
ApiException	-9463
CONNECT	-9464
getBack	-9465
▁hour	-9466
MINUTE	-9467
▁AS	-9468
▁relevant	-9469
▁Net	-9470
Sensitive	-9471
▁comments	-9472
Aggregate	-9473
▁hi	-9474
Func	-9475
▁defin	-9476
rep	-9477
Ancestor	-9478
▁suitable	-9479
▁determined	-9480
REFERENCE	-9481
getNot	-9482
▁tok	-9483
isSelected	-9484
subtract	-9485
▁excluded	-9486
Rollback	-9487
setTime	-9488
aintenance	-9489
▁classifier	-9490
serialize	-9491
widget	-9492
▁signed	-9493
▁FileNotFound	-9494
MethodName	-9495
Navigation	-9496
▁These	-9497
efficients	-9498
▁MediaType	-9499
irected	-9500
▁ge	-9501
RESH	-9502
beros	-9503
poses	-9504
parable	-9505
▁intern	-9506
Detection	-9507
RequestListener	-9508
=\""	-9509
SUF	-9510
▁ra	-9511
▁XMLStream	-9512
sendMessage	-9513
▁choose	-9514
▁scheduled	-9515
etSocketAddress	-9516
▁OS	-9517
utf	-9518
Offer	-9519
STYLE	-9520
InProgress	-9521
RAD	-9522
Poly	-9523
getNamespaceURI	-9524
Ns	-9525
BIN	-9526
▁ic	-9527
jected	-9528
andatory	-9529
MPLE	-9530
▁restart	-9531
nb	-9532
▁glyph	-9533
▁Op	-9534
▁*")	-9535
ivers	-9536
▁5)	-9537
getItems	-9538
▁indicates	-9539
_"	-9540
arv	-9541
Many	-9542
ounded	-9543
Tracking	-9544
ADDRESS	-9545
MSException	-9546
sim	-9547
▁letter	-9548
scroll	-9549
▁preferences	-9550
▁arc	-9551
▁How	-9552
vol	-9553
Parsing	-9554
getOption	-9555
▁Menu	-9556
("/"))	-9557
getMap	-9558
▁reads	-9559
▁bs	-9560
piry	-9561
ython	-9562
▁ring	-9563
▁Select	-9564
▁attempts	-9565
▁middle	-9566
CANCE	-9567
ACCOUNT	-9568
▁Control	-9569
▁EObject	-9570
▁Initial	-9571
ktop	-9572
FLOAT	-9573
▁tracker	-9574
▁"_"	-9575
▁Member	-9576
▁getContext	-9577
CastException	-9578
Cr	-9579
TD	-9580
drop	-9581
▁eval	-9582
Accessibility	-9583
flater	-9584
▁identified	-9585
SimpleValue	-9586
Fix	-9587
▁New	-9588
PLUGIN	-9589
master	-9590
▁implements	-9591
▁32	-9592
stats	-9593
Models	-9594
esting	-9595
isS	-9596
month	-9597
▁encrypted	-9598
PropertyName	-9599
FULL	-9600
▁fol	-9601
getSubject	-9602
pcodes	-9603
inc	-9604
▁generation	-9605
▁JSONException	-9606
rules	-9607
getUrl	-9608
▁regions	-9609
getNumber	-9610
ior	-9611
▁Managed	-9612
▁along	-9613
hi	-9614
REAM	-9615
Android	-9616
NEL	-9617
ssl	-9618
memory	-9619
▁physical	-9620
Pid	-9621
▁cmp	-9622
▁getComponent	-9623
ibm	-9624
▁Sem	-9625
Align	-9626
motion	-9627
inecraft	-9628
regorian	-9629
▁After	-9630
▁LI	-9631
Terminal	-9632
▁escaped	-9633
▁TIME	-9634
▁minutes	-9635
atasource	-9636
▁bindings	-9637
▁fraction	-9638
eli	-9639
mise	-9640
▁choice	-9641
▁mimeType	-9642
ilon	-9643
driver	-9644
▁getLog	-9645
lastic	-9646
chanism	-9647
▁styles	-9648
JO	-9649
++];	-9650
ulary	-9651
Indexed	-9652
▁grammar	-9653
pliance	-9654
AUTO	-9655
▁TR	-9656
Guid	-9657
▁serialize	-9658
InfoList	-9659
▁initialization	-9660
▁three	-9661
environment	-9662
removed	-9663
▁contract	-9664
▁modification	-9665
ably	-9666
getList	-9667
▁contentLength	-9668
REST	-9669
▁bytesRead	-9670
jacent	-9671
css	-9672
Slash	-9673
Team	-9674
▁Red	-9675
▁Sort	-9676
princip	-9677
▁obs	-9678
TextView	-9679
▁cat	-9680
lices	-9681
META	-9682
▁Frame	-9683
▁Instances	-9684
PLACE	-9685
▁board	-9686
FROM	-9687
expressions	-9688
writeInt	-9689
Wire	-9690
getFl	-9691
▁sleep	-9692
▁Handler	-9693
Capability	-9694
▁getConnection	-9695
00)	-9696
setOn	-9697
▁Native	-9698
wil	-9699
▁logs	-9700
▁IProject	-9701
Den	-9702
selector	-9703
Characters	-9704
Lab	-9705
▁3.	-9706
Rpc	-9707
▁modifiers	-9708
sr	-9709
EXP	-9710
Solution	-9711
▁fc	-9712
Validates	-9713
LIMIT	-9714
virtual	-9715
▁Product	-9716
visor	-9717
bitr	-9718
▁define	-9719
▁restriction	-9720
▁{1	-9721
-8");	-9722
TypeInfo	-9723
DIT	-9724
None	-9725
▁registration	-9726
Geom	-9727
▁Condition	-9728
DFS	-9729
Quad	-9730
Applic	-9731
▁Typed	-9732
▁abstract	-9733
tenant	-9734
▁sz	-9735
dispatch	-9736
1]	-9737
▁decor	-9738
NON	-9739
▁IFile	-9740
▁around	-9741
▁sentence	-9742
servlet	-9743
rollback	-9744
Converted	-9745
[];	-9746
▁Dialog	-9747
getRemote	-9748
RET	-9749
mot	-9750
acing	-9751
Procedure	-9752
XX	-9753
dbClient	-9754
▁Buffer	-9755
▁Partition	-9756
Age	-9757
messageEnabled	-9758
Round	-9759
utions	-9760
("0	-9761
▁Expr	-9762
▁Gu	-9763
Bands	-9764
▁Reader	-9765
▁checkNotNull	-9766
ef	-9767
▁StringUtil	-9768
▁One	-9769
setDefault	-9770
phabet	-9771
getReal	-9772
▁6)	-9773
Idle	-9774
pipe	-9775
HttpClient	-9776
▁solution	-9777
▁3;.	-9778
await	-9779
EXEC	-9780
▁updating	-9781
▁Constructor	-9782
GP	-9783
}));	-9784
Encrypted	-9785
Extractor	-9786
▁XY	-9787
▁moved	-9788
Hour	-9789
CURRENT	-9790
▁prevent	-9791
Scheduled	-9792
getAsString	-9793
decess	-9794
sender	-9795
leet	-9796
ffineTransform	-9797
ndi	-9798
ORIZONT	-9799
Substit	-9800
Highlight	-9801
character	-9802
▁Solr	-9803
ValuePair	-9804
▁En	-9805
ORIZONTAL	-9806
ToFile	-9807
vector	-9808
▁Charset	-9809
BC	-9810
_,	-9811
NEG	-9812
dump	-9813
rog	-9814
▁Ap	-9815
▁Back	-9816
▁servers	-9817
Binder	-9818
▁inserted	-9819
CompilationUnit	-9820
WR	-9821
validation	-9822
▁submission	-9823
▁Adapter	-9824
▁FastMath	-9825
isInstance	-9826
▁classPK	-9827
uplicates	-9828
Protection	-9829
FOLDER	-9830
ElementException	-9831
ICON	-9832
getDomain	-9833
arning	-9834
8.	-9835
mits	-9836
▁imported	-9837
ObjectType	-9838
Bracket	-9839
WIND	-9840
Caller	-9841
SETTING	-9842
getCall	-9843
errorMessage	-9844
based	-9845
wilio	-9846
▁decimal	-9847
▁digit	-9848
▁Executor	-9849
▁Extension	-9850
▁fi	-9851
Volumes	-9852
▁levels	-9853
▁repeat	-9854
Iteration	-9855
▁larger	-9856
setTitle	-9857
▁JC	-9858
LAST	-9859
seek	-9860
Validity	-9861
2:	-9862
Readable	-9863
Online	-9864
eq	-9865
AU	-9866
processed	-9867
?");	-9868
[0])	-9869
▁prefs	-9870
Difference	-9871
PaginationFindBy	-9872
getCell	-9873
getNodeType	-9874
Proc	-9875
▁Single	-9876
Urls	-9877
boot	-9878
getValues	-9879
Eval	-9880
getExpression	-9881
▁Azure	-9882
(!	-9883
Freq	-9884
MILLISECONDS	-9885
CHANGED	-9886
getNodeName	-9887
ATT	-9888
ADMIN	-9889
▁sd	-9890
▁scaled	-9891
getFileName	-9892
▁recursively	-9893
REEN	-9894
Profiles	-9895
rivileged	-9896
Mat	-9897
▁quant	-9898
▁configurations	-9899
You	-9900
Calling	-9901
▁appendOrder	-9902
4);	-9903
may	-9904
▁8);	-9905
▁Endpoint	-9906
▁sys	-9907
itted	-9908
Pressed	-9909
features	-9910
ographic	-9911
▁Strings	-9912
getLocale	-9913
▁explicitly	-9914
▁currentTime	-9915
PublicKey	-9916
auses	-9917
▁nr	-9918
Medi	-9919
▁mut	-9920
deploy	-9921
▁rectangle	-9922
▁dp	-9923
▁assumed	-9924
▁combo	-9925
DEC	-9926
▁lp	-9927
getStack	-9928
Obs	-9929
Expect	-9930
getTop	-9931
▁getText	-9932
LET	-9933
Does	-9934
▁ancestor	-9935
CLOSE	-9936
▁Serializable	-9937
▁grouper	-9938
ExecutionContext	-9939
ening	-9940
▁getMax	-9941
Fs	-9942
Supports	-9943
Mac	-9944
▁had	-9945
▁good	-9946
▁kernel	-9947
▁whitespace	-9948
capacity	-9949
▁]	-9950
\":	-9951
Visual	-9952
DataException	-9953
▁ord	-9954
getDB	-9955
outer	-9956
▁strip	-9957
BoundingBox	-9958
▁fn	-9959
▁nc	-9960
Cent	-9961
ratch	-9962
▁ASTNode	-9963
▁Segment	-9964
Subset	-9965
▁Void	-9966
junction	-9967
▁theme	-9968
getDeclar	-9969
▁columnName	-9970
3:	-9971
ZIP	-9972
imated	-9973
▁dataArea	-9974
singletonList	-9975
▁align	-9976
restore	-9977
Sip	-9978
▁fallback	-9979
isNullOrEmpty	-9980
INF	-9981
▁STAT	-9982
inates	-9983
▁elapsed	-9984
IX	-9985
▁GET	-9986
getSign	-9987
▁Argument	-9988
▁FileReader	-9989
pri	-9990
▁ann	-9991
▁tokenizer	-9992
fieldId	-9993
▁urls	-9994
ingMode	-9995
▁derived	-9996
buff	-9997
KeyStore	-9998
ners	-9999
▁cd	-10000
▁1.0;	-10001
nowledge	-10002
ONENT	-10003
disable	-10004
PROJECT	-10005
contentType	-10006
indices	-10007
▁course	-10008
▁inverse	-10009
▁NS	-10010
Dead	-10011
▁seg	-10012
isActive	-10013
("(	-10014
Dict	-10015
Sessions	-10016
▁buffers	-10017
period	-10018
Broadcast	-10019
Acl	-10020
oped	-10021
tensorflow	-10022
Cfg	-10023
ulner	-10024
MET	-10025
paring	-10026
UNCTION	-10027
Attack	-10028
Expiration	-10029
▁spaces	-10030
getSite	-10031
perform	-10032
Way	-10033
cii	-10034
▁36	-10035
retty	-10036
▁Bound	-10037
▁handlers	-10038
getI	-10039
▁ep	-10040
▁JLabel	-10041
▁Does	-10042
EOF	-10043
DSC	-10044
ections	-10045
Conflict	-10046
Comb	-10047
▁audit	-10048
Keeper	-10049
Sid	-10050
Topology	-10051
▁However	-10052
Roots	-10053
Undo	-10054
mContext	-10055
pping	-10056
InMillis	-10057
like	-10058
getTimestamp	-10059
▁INT	-10060
▁ejb	-10061
▁Fragment	-10062
area	-10063
chant	-10064
angles	-10065
▁AP	-10066
LICY	-10067
romos	-10068
▁passes	-10069
▁compilation	-10070
Behavior	-10071
CN	-10072
Ann	-10073
▁persistent	-10074
WAIT	-10075
▁Queue	-10076
▁SVN	-10077
Chunks	-10078
itation	-10079
▁calculated	-10080
Fit	-10081
newValue	-10082
88	-10083
yc	-10084
Iterations	-10085
seud	-10086
▁Material	-10087
compressed	-10088
▁something	-10089
TON	-10090
▁Der	-10091
▁face	-10092
▁func	-10093
Far	-10094
erberos	-10095
▁kb	-10096
updated	-10097
▁indexed	-10098
▁Provider	-10099
▁Psi	-10100
reason	-10101
PullParser	-10102
Callbacks	-10103
ActionEvent	-10104
CharSequence	-10105
BitSet	-10106
▁OWL	-10107
convertToString	-10108
amps	-10109
setBackground	-10110
▁concept	-10111
getSuperclass	-10112
▁5,	-10113
Pod	-10114
comes	-10115
▁mount	-10116
getException	-10117
Ordered	-10118
CheckBox	-10119
▁Connector	-10120
▁Plan	-10121
▁material	-10122
▁si	-10123
CHANGE	-10124
drawable	-10125
compatible	-10126
▁embedded	-10127
SEN	-10128
toURI	-10129
SR	-10130
▁fm	-10131
▁Person	-10132
PathParam	-10133
▁obtained	-10134
HelperUtil	-10135
▁satisf	-10136
getProtocol	-10137
40	-10138
filer	-10139
anagers	-10140
itlement	-10141
idi	-10142
▁pb	-10143
▁ir	-10144
Folders	-10145
ingType	-10146
ife	-10147
endant	-10148
▁trunc	-10149
ApiClient	-10150
qualified	-10151
Triple	-10152
▁drawable	-10153
ucene	-10154
queued	-10155
synchron	-10156
Checkpoint	-10157
yled	-10158
▁looking	-10159
fit	-10160
▁very	-10161
TARGET	-10162
▁executing	-10163
Cat	-10164
▁SP	-10165
erspective	-10166
XA	-10167
Std	-10168
▁accounts	-10169
▁policies	-10170
additional	-10171
▁Asset	-10172
▁Timer	-10173
setLayoutData	-10174
builderForValue	-10175
then	-10176
▁poly	-10177
cookie	-10178
▁codes	-10179
PRIMARY	-10180
▁assumes	-10181
▁jsonObject	-10182
Seen	-10183
▁replication	-10184
Dev	-10185
NBT	-10186
Pref	-10187
PROCESS	-10188
▁Writ	-10189
▁hosts	-10190
PropertyValue	-10191
▁',	-10192
▁Step	-10193
▁fis	-10194
Frames	-10195
()]	-10196
Keyword	-10197
getChildCount	-10198
beat	-10199
isSet	-10200
inity	-10201
stants	-10202
Parallel	-10203
.\	-10204
izers	-10205
SUFFIX	-10206
Dn	-10207
▁sizes	-10208
den	-10209
▁writes	-10210
Plugins	-10211
▁iterate	-10212
▁EC	-10213
ENDING	-10214
▁Callable	-10215
Executes	-10216
▁optionally	-10217
▁encountered	-10218
▁gui	-10219
metic	-10220
ModelException	-10221
▁poll	-10222
implement	-10223
▁plus	-10224
suffix	-10225
▁suite	-10226
CountBy	-10227
▁legacy	-10228
▁reduce	-10229
▁Instruction	-10230
▁frequency	-10231
▁Environment	-10232
SAX	-10233
tri	-10234
vention	-10235
▁observer	-10236
▁authority	-10237
▁sa	-10238
methods	-10239
II	-10240
POSITIVE	-10241
▁xpath	-10242
lon	-10243
libr	-10244
argest	-10245
!.	-10246
setAccessible	-10247
bus	-10248
watch	-10249
▁mon	-10250
▁Sets	-10251
▁PackageManager	-10252
DIST	-10253
amma	-10254
▁Commerce	-10255
SSO	-10256
▁chosen	-10257
ructed	-10258
▁lv	-10259
stand	-10260
('.');	-10261
Discount	-10262
▁sends	-10263
SecurityGroup	-10264
REMO	-10265
nc	-10266
REL	-10267
Translate	-10268
HttpResponse	-10269
bitrary	-10270
ificant	-10271
SW	-10272
▁pin	-10273
Expanded	-10274
getChannel	-10275
▁collector	-10276
▁respect	-10277
▁leading	-10278
listeners	-10279
ocabulary	-10280
▁followed	-10281
5;	-10282
DISPLAY	-10283
▁BitSet	-10284
Aggregation	-10285
asset	-10286
uggestions	-10287
▁('	-10288
▁pa	-10289
▁Direct	-10290
▁wildcard	-10291
components	-10292
▁"#	-10293
▁crs	-10294
times	-10295
LEG	-10296
proc	-10297
elihood	-10298
▁dataType	-10299
ming	-10300
onts	-10301
Spaces	-10302
31	-10303
▁recursive	-10304
ev	-10305
Cross	-10306
Updater	-10307
IfNeeded	-10308
Allele	-10309
ropped	-10310
Shutdown	-10311
▁Protocol	-10312
getStyle	-10313
PROTO	-10314
Vehicle	-10315
▁opened	-10316
ReferenceSystem	-10317
▁LOC	-10318
BufferSize	-10319
createElement	-10320
Odf	-10321
LAYOUT	-10322
Summaries	-10323
▁enclosing	-10324
constant	-10325
lecule	-10326
▁".");	-10327
DefName	-10328
ithmetic	-10329
▁Css	-10330
SeqEl	-10331
▁subelement	-10332
▁1000;	-10333
▁shown	-10334
▁aspect	-10335
prob	-10336
▁foreign	-10337
▁getDialect	-10338
▁smaller	-10339
Stores	-10340
("*	-10341
Spi	-10342
▁Store	-10343
ResourceType	-10344
Poll	-10345
Black	-10346
Creating	-10347
▁templates	-10348
-+	-10349
White	-10350
getTags	-10351
getCluster	-10352
▁SOAP	-10353
INTEGER	-10354
TenantId	-10355
▁article	-10356
▁identical	-10357
▁formats	-10358
▁bug	-10359
▁Scope	-10360
getWorld	-10361
FailedException	-10362
▁Tri	-10363
Inf	-10364
▁ai	-10365
Spacing	-10366
▁tp	-10367
▁16);	-10368
Enclosing	-10369
▁""));	-10370
RestClient	-10371
ello	-10372
▁AWS	-10373
TERAL	-10374
▁baos	-10375
3_	-10376
(")");	-10377
▁provides	-10378
▁Writer	-10379
▁DataSource	-10380
Vol	-10381
Arns	-10382
ORITY	-10383
▁emit	-10384
Editable	-10385
Sq	-10386
history	-10387
cending	-10388
▁serverName	-10389
Alg	-10390
COMMENT	-10391
Filtered	-10392
▁Parameters	-10393
hance	-10394
kkit	-10395
▁Exp	-10396
priority	-10397
trl	-10398
PUBLIC	-10399
▁subclass	-10400
▁JPanel	-10401
JSONArray	-10402
Automat	-10403
Contacts	-10404
▁vertical	-10405
lour	-10406
▁eps	-10407
▁mock	-10408
▁gateway	-10409
▁CLASS	-10410
▁proto	-10411
Aliases	-10412
ovy	-10413
Phrase	-10414
▁deriv	-10415
Hits	-10416
Trim	-10417
jdbc	-10418
▁256	-10419
License	-10420
resultSet	-10421
▁JsonNode	-10422
Flux	-10423
UserName	-10424
Evaluation	-10425
1));	-10426
ino	-10427
▁Duration	-10428
Parents	-10429
▁"20	-10430
assigned	-10431
lhs	-10432
roovy	-10433
encing	-10434
▁blank	-10435
Prefs	-10436
PORTED	-10437
▁Toast	-10438
Wildcard	-10439
getPlugin	-10440
▁TH	-10441
Appro	-10442
failure	-10443
▁further	-10444
SSING	-10445
pub	-10446
feed	-10447
CASE	-10448
Markers	-10449
▁addition	-10450
▁accessible	-10451
▁layers	-10452
▁sensor	-10453
▁clusters	-10454
VARI	-10455
itles	-10456
▁AD	-10457
isVisible	-10458
CSS	-10459
REQUI	-10460
▁qName	-10461
▁convertTo	-10462
Outer	-10463
logical	-10464
aus	-10465
obile	-10466
▁Admin	-10467
convertTo	-10468
▁propag	-10469
ENCODING	-10470
Flavor	-10471
native	-10472
icles	-10473
Diagram	-10474
▁dirty	-10475
Reserved	-10476
Shapes	-10477
▁attributeName	-10478
none	-10479
CONTAIN	-10480
1))	-10481
pad	-10482
Must	-10483
Saved	-10484
Launcher	-10485
▁rgb	-10486
▁recovery	-10487
CLE	-10488
▁fos	-10489
InstanceId	-10490
BUT	-10491
▁rather	-10492
FORE	-10493
ContentTypes	-10494
▁2];	-10495
▁lik	-10496
▁stri	-10497
effect	-10498
possible	-10499
train	-10500
▁pn	-10501
▁Catalog	-10502
▁assertion	-10503
({"	-10504
rowse	-10505
HORIZONTAL	-10506
▁caught	-10507
POSITION	-10508
uples	-10509
▁Will	-10510
DU	-10511
Was	-10512
▁"{	-10513
EXIST	-10514
PERMISSION	-10515
▁sip	-10516
kernel	-10517
▁Import	-10518
ADATA	-10519
Backend	-10520
▁ack	-10521
▁Login	-10522
Successful	-10523
readObject	-10524
getActivity	-10525
▁(2	-10526
getFrom	-10527
Glyph	-10528
Mapped	-10529
▁shadow	-10530
FINEST	-10531
▁acquire	-10532
▁4:	-10533
▁attack	-10534
regorianCalendar	-10535
events	-10536
getRuntime	-10537
▁Box	-10538
▁alarm	-10539
getPackageName	-10540
anchor	-10541
Privilege	-10542
istr	-10543
CLUDE	-10544
paction	-10545
▁getFirst	-10546
FACE	-10547
▁"-"	-10548
Small	-10549
▁getter	-10550
CRY	-10551
▁ix	-10552
phase	-10553
Occurr	-10554
aggreg	-10555
▁sqlQuery	-10556
▁dummy	-10557
8;	-10558
Mean	-10559
construct	-10560
CurrentEntity	-10561
▁addAll	-10562
▁accepted	-10563
Transient	-10564
LP	-10565
getK	-10566
Injector	-10567
ALOG	-10568
Customer	-10569
▁potential	-10570
keep	-10571
▁touch	-10572
▁1].	-10573
SetName	-10574
Requires	-10575
ederation	-10576
▁BlockPos	-10577
▁extracted	-10578
▁specifies	-10579
▁visibility	-10580
arrow	-10581
▁EntityManager	-10582
▁fp	-10583
break	-10584
DEF	-10585
NER	-10586
ircu	-10587
▁sound	-10588
managed	-10589
getDatabase	-10590
▁modifier	-10591
▁hours	-10592
BOSE	-10593
ethrow	-10594
isInfo	-10595
platform	-10596
framework	-10597
getExtension	-10598
▁currentNode	-10599
▁Validator	-10600
AndToken	-10601
▁scheduler	-10602
JPQL	-10603
▁cli	-10604
▁framework	-10605
▁milliseconds	-10606
tok	-10607
Wrong	-10608
Splits	-10609
getLat	-10610
▁confirm	-10611
execution	-10612
iome	-10613
▁ren	-10614
DSCat	-10615
▁Shared	-10616
▁buttons	-10617
setHeader	-10618
AA	-10619
NodeList	-10620
▁dev	-10621
▁Layer	-10622
Naming	-10623
▁nor	-10624
Expired	-10625
INTERVAL	-10626
▁association	-10627
initialized	-10628
▁sessions	-10629
Couldn	-10630
▁clients	-10631
Recipient	-10632
getFields	-10633
(',	-10634
igar	-10635
▁hook	-10636
agnostics	-10637
▁envelope	-10638
getPh	-10639
aintain	-10640
quared	-10641
▁Track	-10642
▁END	-10643
MODEL	-10644
Union	-10645
Assigned	-10646
principal	-10647
INSERT	-10648
getAtom	-10649
▁Registry	-10650
CONFIGURATION	-10651
iform	-10652
Adding	-10653
▁highlight	-10654
STRUCT	-10655
▁-->	-10656
const	-10657
▁prompt	-10658
▁transformer	-10659
▁MBean	-10660
IResource	-10661
miss	-10662
Ct	-10663
ulator	-10664
setLocation	-10665
setDescription	-10666
getUri	-10667
▁models	-10668
getLanguage	-10669
Pred	-10670
▁Sk	-10671
▁PDF	-10672
Thrift	-10673
▁currency	-10674
▁deep	-10675
▁backend	-10676
▁checkFor	-10677
isProductionMode	-10678
Lite	-10679
Least	-10680
▁NaN	-10681
▁At	-10682
Linear	-10683
labels	-10684
Epoch	-10685
Clusters	-10686
▁xx	-10687
attery	-10688
▁Chunk	-10689
PROPERTIES	-10690
DefinitionId	-10691
roken	-10692
izations	-10693
100	-10694
▁Dist	-10695
FileEntry	-10696
Probability	-10697
▁evaluation	-10698
ares	-10699
quis	-10700
ributor	-10701
getCommand	-10702
4;	-10703
Dock	-10704
▁defaults	-10705
deli	-10706
▁medi	-10707
▁Packet	-10708
SOR	-10709
activate	-10710
ominator	-10711
▁oper	-10712
▁Border	-10713
4)	-10714
getOrderBy	-10715
Pkg	-10716
USH	-10717
GROUPID	-10718
rank	-10719
Setter	-10720
Scores	-10721
▁horizontal	-10722
putInt	-10723
fn	-10724
dep	-10725
esis	-10726
ordered	-10727
▁Processing	-10728
etched	-10729
▁Viewer	-10730
▁recipient	-10731
▁pv	-10732
LDAP	-10733
▁aliases	-10734
▁EOF	-10735
compress	-10736
▁streams	-10737
imap	-10738
▁sur	-10739
0(	-10740
▁DN	-10741
grouper	-10742
eval	-10743
▁follows	-10744
▁problems	-10745
Provisioning	-10746
jsp	-10747
when	-10748
?.	-10749
▁hidden	-10750
▁effective	-10751
>());	-10752
OPERATION	-10753
▁KeyStore	-10754
ModelElement	-10755
▁training	-10756
controller	-10757
jax	-10758
VIDER	-10759
Embedded	-10760
Directories	-10761
png	-10762
▁conflict	-10763
▁getAttribute	-10764
cannot	-10765
Placement	-10766
▁parallel	-10767
▁nfe	-10768
▁splits	-10769
Feedback	-10770
▁Pointer	-10771
Balancer	-10772
STREAM	-10773
Verifier	-10774
Inher	-10775
PRIVATE	-10776
getOutputStream	-10777
▁past	-10778
Pi	-10779
artbeat	-10780
setImage	-10781
rok	-10782
delay	-10783
DITION	-10784
▁keyword	-10785
▁runnable	-10786
Ter	-10787
attach	-10788
VERBOSE	-10789
▁mp	-10790
setC	-10791
▁team	-10792
branch	-10793
algorithm	-10794
findBy	-10795
marshal	-10796
mat	-10797
▁sx	-10798
room	-10799
launch	-10800
▁week	-10801
FieldType	-10802
rincipals	-10803
QueryResult	-10804
isInfoEnabled	-10805
JAVA	-10806
TYPES	-10807
mergeFrom	-10808
▁"="	-10809
▁Unknown	-10810
▁nearest	-10811
Fi	-10812
Spot	-10813
▁nodeId	-10814
Searches	-10815
PageTemplate	-10816
program	-10817
Framework	-10818
▁DI	-10819
▁cred	-10820
▁IType	-10821
3<	-10822
Pts	-10823
▁intended	-10824
▁Offset	-10825
Comparable	-10826
[6	-10827
CANCEL	-10828
closed	-10829
▁linear	-10830
▁inc	-10831
Piece	-10832
arvest	-10833
Verifies	-10834
versation	-10835
Pad	-10836
▁give	-10837
configure	-10838
structure	-10839
▁compound	-10840
Hours	-10841
▁Blob	-10842
TagList	-10843
(0))	-10844
▁Size	-10845
▁':	-10846
▁ti	-10847
SCOPE	-10848
UNDLE	-10849
Consistency	-10850
IE	-10851
factor	-10852
▁business	-10853
▁broadcast	-10854
getChildNodes	-10855
Disable	-10856
DESCRIPTION	-10857
Station	-10858
BOT	-10859
▁ptr	-10860
▁hide	-10861
▁Start	-10862
▁Options	-10863
▁<"	-10864
MITER	-10865
Endpoints	-10866
▁superclass	-10867
Git	-10868
Related	-10869
▁arbitrary	-10870
ACL	-10871
Extracts	-10872
setCurrent	-10873
Nr	-10874
uzz	-10875
retry	-10876
ToCheck	-10877
objects	-10878
▁Interval	-10879
▁ing	-10880
Prompt	-10881
getRead	-10882
▁Min	-10883
▁10);	-10884
("/");	-10885
▁transformed	-10886
▁au	-10887
▁vs	-10888
POLICY	-10889
▁upgrade	-10890
COMPLE	-10891
getSecond	-10892
vere	-10893
▁identifiers	-10894
Inc	-10895
▁println	-10896
ergy	-10897
▁Sample	-10898
Artifacts	-10899
ResourceInner	-10900
getUserId	-10901
Aff	-10902
▁ft	-10903
panel	-10904
Checking	-10905
▁procedure	-10906
▁Gen	-10907
▁Mouse	-10908
Prototype	-10909
COMMAND	-10910
▁customer	-10911
▁Reflection	-10912
▁(++	-10913
choice	-10914
MQ	-10915
setState	-10916
▁applicable	-10917
NOTI	-10918
EK	-10919
PLAY	-10920
ilent	-10921
▁light	-10922
Comparison	-10923
▁gap	-10924
Modes	-10925
union	-10926
getUuid	-10927
▁interrupted	-10928
SCRIPT	-10929
▁roots	-10930
QUALI	-10931
literal	-10932
ycles	-10933
▁Cannot	-10934
-"	-10935
gui	-10936
gp	-10937
▁Pending	-10938
anity	-10939
userName	-10940
Zones	-10941
ceeds	-10942
▁paginating	-10943
lee	-10944
▁handleException	-10945
▁PAR	-10946
Activation	-10947
erman	-10948
▁Notes	-10949
▁care	-10950
blocks	-10951
▁setValue	-10952
▁ResponseEntity	-10953
▁RO	-10954
putExtra	-10955
Swap	-10956
isor	-10957
ancial	-10958
productionMode	-10959
ROL	-10960
Subnet	-10961
Experiment	-10962
▁surface	-10963
▁containers	-10964
seed	-10965
download	-10966
▁ldap	-10967
OfType	-10968
Participant	-10969
isWhitespace	-10970
▁asynchronous	-10971
▁mi	-10972
▁mLast	-10973
named	-10974
▁getColumn	-10975
JOB	-10976
▁gd	-10977
Router	-10978
▁Stop	-10979
▁mime	-10980
upload	-10981
Through	-10982
▁inline	-10983
▁DocumentBuilder	-10984
fixed	-10985
▁START	-10986
PageImpl	-10987
MC	-10988
▁simpl	-10989
AWS	-10990
▁expired	-10991
TRIC	-10992
▁6;	-10993
▁sf	-10994
getDevice	-10995
attrs	-10996
Printer	-10997
running	-10998
▁Export	-10999
>>(	-11000
▁ATTR	-11001
▁"*	-11002
Near	-11003
▁implicit	-11004
▁allocated	-11005
COS	-11006
Po	-11007
Too	-11008
▁minor	-11009
umulative	-11010
▁experiment	-11011
▁nillableValue	-11012
Mix	-11013
▁readable	-11014
INE	-11015
ROP	-11016
Sur	-11017
CONST	-11018
(6);	-11019
rivilege	-11020
getStorage	-11021
(";	-11022
Signed	-11023
evt	-11024
▁Del	-11025
▁aut	-11026
CHECKS	-11027
TestCase	-11028
CAT	-11029
UTH	-11030
cmp	-11031
▁produce	-11032
▁OP	-11033
MANAG	-11034
Sections	-11035
Pay	-11036
ACTIVITY	-11037
▁vehicle	-11038
dy	-11039
▁instantiate	-11040
uspend	-11041
▁Dynamic	-11042
segments	-11043
▁affected	-11044
IFT	-11045
▁dl	-11046
ircuit	-11047
▁locked	-11048
▁Mapping	-11049
▁getNum	-11050
Anonymous	-11051
Matched	-11052
Sentence	-11053
▁deliver	-11054
▁Validate	-11055
rd	-11056
Tier	-11057
▁portlet	-11058
FSConstants	-11059
TIMESTAMP	-11060
SecurityManager	-11061
▁AffineTransform	-11062
▁NBT	-11063
nr	-11064
USTOM	-11065
(");	-11066
▁sep	-11067
arily	-11068
▁Extended	-11069
elist	-11070
lier	-11071
LT	-11072
details	-11073
RPC	-11074
▁SC	-11075
Minutes	-11076
Initialization	-11077
las	-11078
click	-11079
Similar	-11080
▁decoder	-11081
CSV	-11082
Sends	-11083
▁proj	-11084
▁identify	-11085
serviceName	-11086
Good	-11087
▁chunks	-11088
IMAL	-11089
FromFile	-11090
Intersection	-11091
mac	-11092
pref	-11093
parseBoolean	-11094
must	-11095
ittle	-11096
▁Aggreg	-11097
▁adjusted	-11098
▁Annotated	-11099
▁getService	-11100
findViewById	-11101
clip	-11102
seudo	-11103
ili	-11104
Pipe	-11105
sects	-11106
▁CRE	-11107
paths	-11108
▁upon	-11109
▁rename	-11110
SessionId	-11111
:00	-11112
rotation	-11113
▁Register	-11114
PropertyChange	-11115
▁recur	-11116
eel	-11117
BagConstraints	-11118
getColumnIndex	-11119
44	-11120
lips	-11121
getRole	-11122
▁volumes	-11123
quite	-11124
atural	-11125
TCN	-11126
ooled	-11127
Recursive	-11128
▁performs	-11129
Bot	-11130
Ldap	-11131
Mount	-11132
▁raster	-11133
▁Services	-11134
uron	-11135
AVAIL	-11136
▁localName	-11137
▁Launch	-11138
CONF	-11139
Intern	-11140
interface	-11141
Specs	-11142
dataType	-11143
▁tb	-11144
▁CSV	-11145
Precision	-11146
URIs	-11147
▁Max	-11148
Board	-11149
▁higher	-11150
▁Profile	-11151
Registers	-11152
Percentage	-11153
uali	-11154
DataObject	-11155
▁lowest	-11156
FIRST	-11157
limited	-11158
▁placeholder	-11159
Btn	-11160
esquite	-11161
▁compressed	-11162
mn	-11163
("@	-11164
▁pane	-11165
Installed	-11166
▁fall	-11167
ItemType	-11168
setSource	-11169
ales	-11170
cher	-11171
func	-11172
getOptions	-11173
vars	-11174
Later	-11175
preter	-11176
RowCount	-11177
Associated	-11178
Repeat	-11179
▁getMethod	-11180
ouse	-11181
getScheme	-11182
getUnique	-11183
setParent	-11184
DER	-11185
▁Alert	-11186
▁plugins	-11187
related	-11188
▁substring	-11189
cular	-11190
▁getSelected	-11191
▁locator	-11192
IGH	-11193
setup	-11194
TempFile	-11195
redirect	-11196
requested	-11197
▁SY	-11198
registry	-11199
▁scenario	-11200
▁described	-11201
▁allocation	-11202
geo	-11203
Scaling	-11204
Subtype	-11205
WEB	-11206
▁becomes	-11207
▁bond	-11208
scheme	-11209
archive	-11210
getRegion	-11211
▁viol	-11212
square	-11213
totype	-11214
▁Volume	-11215
▁cloned	-11216
▁newly	-11217
Candidates	-11218
repo	-11219
____	-11220
tcnError	-11221
ASCI	-11222
TICAL	-11223
▁bracket	-11224
Ts	-11225
▁pivot	-11226
▁groupName	-11227
▁Non	-11228
Scene	-11229
paque	-11230
▁jdbc	-11231
▁walk	-11232
CODES	-11233
getMain	-11234
getObjectMapper	-11235
:",	-11236
Callable	-11237
▁reload	-11238
▁getLast	-11239
38	-11240
▁TypeReference	-11241
▁Us	-11242
Wifi	-11243
opts	-11244
unct	-11245
▁dto	-11246
▁millis	-11247
Localization	-11248
verter	-11249
▁routing	-11250
▁topology	-11251
FEATURE	-11252
createStatement	-11253
vable	-11254
▁BufferedWriter	-11255
IdTo	-11256
▁1]);	-11257
▁Word	-11258
transfer	-11259
munication	-11260
▁TtcnError	-11261
▁getElement	-11262
ynomial	-11263
ByTagName	-11264
▁getObject	-11265
hases	-11266
▁Load	-11267
▁Root	-11268
PARENT	-11269
subList	-11270
▁membership	-11271
sf	-11272
▁Direction	-11273
▁Org	-11274
DEVICE	-11275
▁getNode	-11276
mouse	-11277
▁"?	-11278
▁mac	-11279
Diagnostic	-11280
zoom	-11281
▁FOR	-11282
▁newName	-11283
▁ordering	-11284
STOP	-11285
▁JAXB	-11286
>";	-11287
itr	-11288
trust	-11289
NORMAL	-11290
BI	-11291
Imports	-11292
▁Lookup	-11293
isStatic	-11294
▁Primitive	-11295
▁Transformer	-11296
cnt	-11297
setFont	-11298
transport	-11299
getWorkspace	-11300
▁Bu	-11301
▁getF	-11302
loadClass	-11303
▁checkpoint	-11304
ieve	-11305
MimeType	-11306
▁controls	-11307
Assessment	-11308
▁slash	-11309
▁Ignite	-11310
getLevel	-11311
▁findByG	-11312
▁indicate	-11313
tuple	-11314
▁Writable	-11315
▁Temp	-11316
charset	-11317
▁preced	-11318
CATEGORY	-11319
Recipe	-11320
▁resize	-11321
FormParams	-11322
▁tf	-11323
Within	-11324
thers	-11325
▁Naming	-11326
receiver	-11327
PrivateKey	-11328
_3);	-11329
orical	-11330
imator	-11331
Publisher	-11332
Convenience	-11333
QUO	-11334
▁intervals	-11335
RequestException	-11336
LITERAL	-11337
FINER	-11338
▁expiration	-11339
58	-11340
threads	-11341
▁newNode	-11342
▁ends	-11343
▁filled	-11344
▁annot	-11345
▁queryString	-11346
pred	-11347
▁")";	-11348
ToDelete	-11349
▁subclasses	-11350
▁applications	-11351
Pause	-11352
InetAddress	-11353
Semantic	-11354
▁{0}",	-11355
▁Factory	-11356
lr	-11357
▁depends	-11358
uffle	-11359
▁Measure	-11360
▁uriBuilder	-11361
UAL	-11362
Radio	-11363
▁hits	-11364
Example	-11365
Reports	-11366
[].	-11367
library	-11368
setSize	-11369
_1,	-11370
vidence	-11371
▁Used	-11372
Grammar	-11373
▁ISO	-11374
HEIGHT	-11375
Motion	-11376
readLock	-11377
Cut	-11378
LANG	-11379
Portlet	-11380
example	-11381
ASCII	-11382
Serialization	-11383
MF	-11384
▁RDF	-11385
▁locate	-11386
▁fin	-11387
Crm	-11388
switch	-11389
▁Dataset	-11390
▁Precondition	-11391
▁prepared	-11392
StateManager	-11393
▁nl	-11394
finderPathWith	-11395
GT	-11396
.0;	-11397
▁Chart	-11398
▁Phone	-11399
▁FileObject	-11400
▁clock	-11401
codePoint	-11402
1).	-11403
Scopes	-11404
▁returnType	-11405
lapse	-11406
OrNull	-11407
getHttp	-11408
ERT	-11409
▁bc	-11410
Toolkit	-11411
ased	-11412
▁metaData	-11413
aits	-11414
▁Close	-11415
ejb	-11416
▁XA	-11417
filtered	-11418
atibility	-11419
▁Paths	-11420
▁Namespace	-11421
▁instructions	-11422
Uris	-11423
▁margin	-11424
▁reserved	-11425
▁PK	-11426
Moves	-11427
slash	-11428
DownLatch	-11429
▁parameterTypes	-11430
▁CmsResource	-11431
checkArgument	-11432
▁price	-11433
Attachments	-11434
▁Timeout	-11435
▁Preference	-11436
▁FF	-11437
Buckets	-11438
getSequence	-11439
▁RemoteException	-11440
Legacy	-11441
pg	-11442
▁Activ	-11443
=?	-11444
SHOW	-11445
OLLOW	-11446
BUNDLE	-11447
columnName	-11448
ingerprint	-11449
resourceName	-11450
fac	-11451
EditPart	-11452
{"	-11453
▁(!_	-11454
▁Unable	-11455
Assignments	-11456
Solr	-11457
▁Reg	-11458
▁frames	-11459
ENTIFIER	-11460
▁overlay	-11461
rawtypes	-11462
▁probability	-11463
▁useFinderCache	-11464
]]	-11465
▁fr	-11466
asis	-11467
ubble	-11468
Legend	-11469
commended	-11470
Accounting	-11471
Gray	-11472
Charge	-11473
city	-11474
setUser	-11475
getSample	-11476
attributeName	-11477
getStackTrace	-11478
▁CSS	-11479
chart	-11480
STATIC	-11481
Submit	-11482
getFilter	-11483
▁agg	-11484
ATIONS	-11485
FileChooser	-11486
While	-11487
▁Malformed	-11488
Logic	-11489
ARGUMENT	-11490
inventory	-11491
Statuses	-11492
calendar	-11493
▁Cre	-11494
Dependent	-11495
Skill	-11496
▁Editor	-11497
Describe	-11498
▁aa	-11499
reply	-11500
shell	-11501
Implicit	-11502
">	-11503
▁gr	-11504
BOOLEAN	-11505
strip	-11506
▁hints	-11507
▁corresponds	-11508
peg	-11509
▁100;	-11510
Ensures	-11511
matching	-11512
edValue	-11513
▁eventType	-11514
GO	-11515
2");	-11516
Walk	-11517
getCache	-11518
ensit	-11519
qtt	-11520
Exprs	-11521
getOrderByFields	-11522
▁eq	-11523
Photo	-11524
▁"\"");	-11525
▁FOLLOW	-11526
Replicas	-11527
▁trailing	-11528
edger	-11529
ublicKey	-11530
▁consume	-11531
▁FileWriter	-11532
getReturnType	-11533
getOut	-11534
users	-11535
▁codec	-11536
PostBody	-11537
getTemplate	-11538
Fold	-11539
▁rendering	-11540
66	-11541
YES	-11542
NING	-11543
ListEntry	-11544
MouseEvent	-11545
▁Comparable	-11546
getCoordinate	-11547
▁SystemException	-11548
Misc	-11549
▁getMessage	-11550
IV	-11551
'",	-11552
▁capture	-11553
RANGE	-11554
OfWeek	-11555
versed	-11556
Breakpoint	-11557
▁ZipEntry	-11558
Dep	-11559
▁16;	-11560
phone	-11561
ervation	-11562
getMetaData	-11563
RAW	-11564
tests	-11565
Velocity	-11566
ClassPath	-11567
ceil	-11568
maximum	-11569
workflow	-11570
viation	-11571
Overrides	-11572
fsp	-11573
iqu	-11574
▁href	-11575
▁Coord	-11576
ASTNode	-11577
Layers	-11578
detail	-11579
ENG	-11580
▁css	-11581
itance	-11582
Watcher	-11583
orientation	-11584
reet	-11585
▁thing	-11586
synchronized	-11587
pended	-11588
setLast	-11589
▁delivery	-11590
ena	-11591
▁';	-11592
▁30	-11593
NETWORK	-11594
deployment	-11595
addListener	-11596
▁OpenCms	-11597
ctet	-11598
readUnsigned	-11599
Reading	-11600
>",	-11601
▁abort	-11602
▁ask	-11603
▁Ldap	-11604
_0>.	-11605
▁Route	-11606
▁doing	-11607
generic	-11608
JSONException	-11609
▁!"	-11610
▁stopped	-11611
▁'\'	-11612
METADATA	-11613
▁OUT	-11614
▁bus	-11615
contain	-11616
scanner	-11617
▁Decimal	-11618
family	-11619
▁keystore	-11620
WAY	-11621
ios	-11622
▁possibly	-11623
Configured	-11624
▁er	-11625
▁outgoing	-11626
selectHeader	-11627
▁iae	-11628
Notes	-11629
▁columnIndex	-11630
▁Mult	-11631
Attrib	-11632
urer	-11633
▁git	-11634
▁Operand	-11635
Individual	-11636
▁REST	-11637
▁peek	-11638
exclude	-11639
lab	-11640
Mass	-11641
iguous	-11642
▁Privileged	-11643
Annot	-11644
flate	-11645
SOAP	-11646
▁Ac	-11647
ulates	-11648
negative	-11649
▁anything	-11650
▁Sm	-11651
Gene	-11652
▁vol	-11653
gorithms	-11654
▁Schedule	-11655
lan	-11656
needs	-11657
processing	-11658
->	-11659
getTo	-11660
Stride	-11661
radius	-11662
▁pause	-11663
▁shortcut	-11664
▁End	-11665
Canonical	-11666
▁Tab	-11667
▁capabilities	-11668
_)	-11669
Caches	-11670
avelet	-11671
strumentation	-11672
▁contexts	-11673
Sym	-11674
Cons	-11675
Ticks	-11676
Gradient	-11677
SearchResult	-11678
Cpu	-11679
▁pub	-11680
mor	-11681
isNotNull	-11682
Dns	-11683
Latest	-11684
modules	-11685
mos	-11686
FLOW	-11687
▁BO	-11688
sation	-11689
▁OM	-11690
connector	-11691
▁fieldID	-11692
RequestBody	-11693
inux	-11694
prise	-11695
▁black	-11696
NOTE	-11697
URITY	-11698
")).	-11699
Bulk	-11700
Measurement	-11701
soc	-11702
[2]);	-11703
▁More	-11704
executor	-11705
getExternal	-11706
Reduce	-11707
▁MotionEvent	-11708
gedIn	-11709
Sparse	-11710
▁rp	-11711
THREAD	-11712
▁looks	-11713
▁slots	-11714
ObjectId	-11715
RULE	-11716
▁JVM	-11717
DOMAIN	-11718
termin	-11719
▁Active	-11720
▁JButton	-11721
▁getModel	-11722
Namespaces	-11723
▁quick	-11724
olation	-11725
▁mirror	-11726
▁wizard	-11727
OID	-11728
MISSING	-11729
▁1000);	-11730
Prefixes	-11731
mService	-11732
RequestId	-11733
▁newState	-11734
EditorInput	-11735
Os	-11736
days	-11737
▁converts	-11738
48	-11739
▁ON	-11740
SHIFT	-11741
balance	-11742
▁Controller	-11743
▁cut	-11744
UNI	-11745
tras	-11746
precation	-11747
writeLock	-11748
▁PrintStream	-11749
BUTTON	-11750
doPrivileged	-11751
[0][	-11752
getTree	-11753
supports	-11754
▁located	-11755
▁various	-11756
▁accessor	-11757
▁mt	-11758
▁localVarPath	-11759
▁localized	-11760
▁pushFollow	-11761
ToolTipText	-11762
▁INVALID	-11763
▁balance	-11764
getStringValue	-11765
▁actionPerformed	-11766
▁LA	-11767
▁LONG	-11768
▁HttpRequest	-11769
1/	-11770
▁Sn	-11771
▁Card	-11772
Verification	-11773
TT	-11774
isDis	-11775
preview	-11776
consumer	-11777
initCause	-11778
▁ObjectMapper	-11779
CK	-11780
PED	-11781
pto	-11782
LOBAL	-11783
timer	-11784
DELIMITER	-11785
▁cy	-11786
▁Valid	-11787
Timeline	-11788
▁establish	-11789
MIC	-11790
more	-11791
Interest	-11792
deserial	-11793
▁Transport	-11794
▁stringBuilder	-11795
dget	-11796
Contribution	-11797
▁apps	-11798
Tensor	-11799
▁license	-11800
▁Consumer	-11801
ALIGN	-11802
▁VP	-11803
▁much	-11804
logsEntry	-11805
▁El	-11806
Picker	-11807
throwable	-11808
▁Sim	-11809
▁intersect	-11810
▁transactions	-11811
45	-11812
RM	-11813
▁MessageDigest	-11814
RP	-11815
▁COS	-11816
▁review	-11817
UTION	-11818
Parsed	-11819
.0.	-11820
▁producer	-11821
▁assertNull	-11822
00;	-11823
("{}	-11824
▁Sip	-11825
BOTTOM	-11826
▁sections	-11827
Activities	-11828
Interrupted	-11829
getNetwork	-11830
blob	-11831
▁Sync	-11832
enames	-11833
▁}.	-11834
ENGLISH	-11835
Spinner	-11836
wrapper	-11837
FUNCTION	-11838
▁txn	-11839
▁"("	-11840
asured	-11841
COMPONENT	-11842
▁setProperty	-11843
▁Transition	-11844
EntryVersion	-11845
HS	-11846
▁markers	-11847
Lazy	-11848
▁dbClient	-11849
extensions	-11850
IMUM	-11851
▁getProject	-11852
▁docs	-11853
ibration	-11854
readValue	-11855
reement	-11856
Thumbnail	-11857
LIT	-11858
▁Imp	-11859
▁Drawable	-11860
Got	-11861
eto	-11862
▁applies	-11863
▁repaint	-11864
FieldBuilderV	-11865
▁kv	-11866
▁isIn	-11867
backup	-11868
dataSource	-11869
▁getSession	-11870
romosome	-11871
Zeros	-11872
▁equ	-11873
▁Num	-11874
▁macro	-11875
UNDEFINED	-11876
rices	-11877
▁Then	-11878
▁advance	-11879
FileObject	-11880
severe	-11881
ClassType	-11882
Have	-11883
annotations	-11884
InstanceState	-11885
DDM	-11886
Atomic	-11887
▁curve	-11888
uristic	-11889
▁That	-11890
setComponent	-11891
▁lc	-11892
▁seek	-11893
currence	-11894
▁sessionId	-11895
▁Ass	-11896
▁Mode	-11897
▁STRING	-11898
EntryException	-11899
▁SVG	-11900
Javadoc	-11901
▁rev	-11902
Average	-11903
InBytes	-11904
columnIndex	-11905
(":");	-11906
▁concaten	-11907
toPath	-11908
Recursively	-11909
arb	-11910
norm	-11911
DELAY	-11912
▁major	-11913
▁vc	-11914
Hyper	-11915
▁fault	-11916
PriceList	-11917
▁Utilities	-11918
isSupports	-11919
▁singleton	-11920
▁(-	-11921
Atoms	-11922
caller	-11923
▁getE	-11924
Maximum	-11925
▁cookies	-11926
getOperation	-11927
Notifications	-11928
DIRECTORY	-11929
▁ASC	-11930
▁Auto	-11931
Sequences	-11932
icast	-11933
setIs	-11934
▁propName	-11935
▁tbl	-11936
Cover	-11937
acquire	-11938
isPrimitive	-11939
getPassword	-11940
▁POST	-11941
ArrayType	-11942
(4,	-11943
MER	-11944
findFirst	-11945
▁databaseName	-11946
Descriptions	-11947
Sep	-11948
▁atts	-11949
▁getPath	-11950
▁AtomicInteger	-11951
▁']	-11952
KeyException	-11953
▁cg	-11954
isUn	-11955
▁symbols	-11956
▁csv	-11957
▁tech	-11958
AVAILABLE	-11959
▁External	-11960
TRANSACTION	-11961
FD	-11962
▁ans	-11963
plorer	-11964
portal	-11965
Exclude	-11966
pointer	-11967
GONE	-11968
startTime	-11969
▁invoking	-11970
CARD	-11971
dro	-11972
▁?,	-11973
audio	-11974
getIcon	-11975
Initiator	-11976
estamps	-11977
ashboard	-11978
persistence	-11979
▁RestException	-11980
▁GUI	-11981
▁dates	-11982
▁notes	-11983
▁Helper	-11984
ThreadPool	-11985
▁getSource	-11986
NEGATIVE	-11987
▁findByUuid	-11988
deleted	-11989
getRepository	-11990
SEG	-11991
ples	-11992
rivacy	-11993
Cleanup	-11994
▁getLocal	-11995
▁XmlPullParser	-11996
std	-11997
▁mix	-11998
▁pts	-11999
isOpen	-12000
Compile	-12001
Handling	-12002
AuthNames	-12003
Migration	-12004
▁ee	-12005
▁nv	-12006
conc	-12007
tasks	-12008
minimum	-12009
ugg	-12010
▁dock	-12011
RETURN	-12012
Exclusive	-12013
▁getChildren	-12014
Mime	-12015
▁Since	-12016
▁typed	-12017
PROTOCOL	-12018
putString	-12019
▁Agent	-12020
Stops	-12021
wrapped	-12022
ThriftId	-12023
▁errorMsg	-12024
regex	-12025
▁Main	-12026
setS	-12027
geometry	-12028
Statistic	-12029
async	-12030
▁consumed	-12031
FeatureType	-12032
▁findByThriftId	-12033
PROVIDER	-12034
Trip	-12035
▁Opcodes	-12036
CollectionId	-12037
ATER	-12038
nodeId	-12039
gra	-12040
undles	-12041
▁nn	-12042
▁won	-12043
Applies	-12044
Paragraph	-12045
▁zk	-12046
avas	-12047
mLock	-12048
TagCompound	-12049
InlineDistinct	-12050
FromString	-12051
▁tolerance	-12052
▁theEObject	-12053
▁deserialize	-12054
PAREN	-12055
SITIVE	-12056
▁SU	-12057
pares	-12058
agger	-12059
▁reported	-12060
▁callbacks	-12061
▁ops	-12062
Appends	-12063
▁iterations	-12064
(""	-12065
▁PRE	-12066
getSc	-12067
Ignored	-12068
▁indicating	-12069
▁td	-12070
Responses	-12071
soap	-12072
GROUND	-12073
ah	-12074
▁40	-12075
eter	-12076
Guard	-12077
onus	-12078
▁toReturn	-12079
Transactions	-12080
▁secure	-12081
utomation	-12082
getNodeValue	-12083
stringValue	-12084
isF	-12085
house	-12086
StartIndex	-12087
getJSONObject	-12088
▁Postcondition	-12089
(5);	-12090
▁VER	-12091
getBy	-12092
rogate	-12093
▁subnet	-12094
▁dispose	-12095
getFunction	-12096
igr	-12097
acesContext	-12098
▁getTable	-12099
▁Principal	-12100
Large	-12101
operand	-12102
setContext	-12103
▁better	-12104
▁DataBuffer	-12105
EXTERNAL	-12106
CompanyId	-12107
▁executable	-12108
▁fo	-12109
getConstructor	-12110
VP	-12111
edImage	-12112
▁keyStore	-12113
))));	-12114
FRAME	-12115
could	-12116
rightness	-12117
▁blockSize	-12118
.0);	-12119
getAg	-12120
▁defaultCase	-12121
[10	-12122
▁ide	-12123
Overflow	-12124
SUPPORTED	-12125
▁MB	-12126
MR	-12127
SAFE	-12128
mento	-12129
Players	-12130
Histogram	-12131
()});	-12132
MAC	-12133
(1),	-12134
▁memAddress	-12135
bre	-12136
▁going	-12137
▁unsigned	-12138
perience	-12139
helper	-12140
authentic	-12141
invalidate	-12142
ji	-12143
sid	-12144
ints	-12145
leles	-12146
▁damage	-12147
▁increase	-12148
▁createOrUpdate	-12149
SITE	-12150
MEMBER	-12151
specified	-12152
ObjectName	-12153
same	-12154
AI	-12155
ucle	-12156
Parcel	-12157
coords	-12158
▁happens	-12159
6);	-12160
Figure	-12161
NodeInfo	-12162
CB	-12163
IES	-12164
summ	-12165
▁BYTE	-12166
Kernel	-12167
▁configs	-12168
bitmap	-12169
▁strict	-12170
theEObject	-12171
Gl	-12172
nx	-12173
shard	-12174
▁overwrite	-12175
▁unregister	-12176
focus	-12177
▁HttpStatus	-12178
states	-12179
▁lab	-12180
KeySpec	-12181
units	-12182
nested	-12183
Patient	-12184
Necessary	-12185
neighb	-12186
▁packed	-12187
RequestContext	-12188
.")	-12189
▁10,	-12190
▁CLI	-12191
▁hist	-12192
▁ignorable	-12193
za	-12194
Analytics	-12195
▁Artifact	-12196
PDF	-12197
▁refs	-12198
MODULE	-12199
arc	-12200
Pitch	-12201
Macro	-12202
METRIC	-12203
Constructs	-12204
ForTesting	-12205
▁Pr	-12206
ende	-12207
Billing	-12208
▁aggregation	-12209
problem	-12210
▁Callback	-12211
▁getParameter	-12212
Timed	-12213
alker	-12214
vening	-12215
▁getItem	-12216
▁accessToken	-12217
adjust	-12218
obtain	-12219
▁SQLite	-12220
▁getContent	-12221
▁avg	-12222
▁onto	-12223
▁responsible	-12224
▁visual	-12225
getShell	-12226
▁histogram	-12227
JDBC	-12228
▁offer	-12229
getNamed	-12230
▁getImage	-12231
LES	-12232
▁placed	-12233
variables	-12234
>>>>()	-12235
oth	-12236
▁Cookie	-12237
getLayout	-12238
▁dependent	-12239
working	-12240
gression	-12241
▁deletion	-12242
vo	-12243
hide	-12244
Refer	-12245
SCALE	-12246
BINARY	-12247
▁corner	-12248
▁issues	-12249
Decorator	-12250
▁distinct	-12251
▁SortedSet	-12252
▁roi	-12253
licts	-12254
pearance	-12255
▁overflow	-12256
cid	-12257
showMessage	-12258
▁authenticated	-12259
SVG	-12260
Most	-12261
ValueType	-12262
▁determines	-12263
summary	-12264
]+	-12265
▁Compilation	-12266
▁cw	-12267
WHITE	-12268
▁errMsg	-12269
▁pipe	-12270
▁LocalDate	-12271
▁ContentValues	-12272
▁{}.	-12273
HashCode	-12274
▁VisAD	-12275
THE	-12276
Foreign	-12277
tagName	-12278
eroTenantId	-12279
▁consistent	-12280
▁py	-12281
border	-12282
IB	-12283
RESULTS	-12284
"},	-12285
[4]	-12286
▁SOC	-12287
Correct	-12288
▁StringReader	-12289
Uses	-12290
▁Paint	-12291
Reverse	-12292
ListView	-12293
▁startPos	-12294
SQLHelperUtil	-12295
▁projectId	-12296
Au	-12297
{0}	-12298
Will	-12299
gistr	-12300
▁scene	-12301
getGlobal	-12302
Inserts	-12303
Hostname	-12304
▁processes	-12305
lc	-12306
ByType	-12307
ulnerability	-12308
Unlock	-12309
▁bp	-12310
▁firstToken	-12311
▁intermediate	-12312
HOME	-12313
mult	-12314
▁ls	-12315
TAIL	-12316
writeObject	-12317
Please	-12318
perature	-12319
Associations	-12320
Bank	-12321
Tabs	-12322
▁stub	-12323
itelist	-12324
▁scores	-12325
Construction	-12326
6)	-12327
obot	-12328
▁Edit	-12329
Propag	-12330
Quotes	-12331
▁bridge	-12332
Movement	-12333
yclerView	-12334
▁Hibernate	-12335
Ban	-12336
Flat	-12337
▁quality	-12338
▁ignoring	-12339
▁intervening	-12340
▁COMP	-12341
(10	-12342
▁SET	-12343
Routes	-12344
sembly	-12345
▁"--	-12346
▁compression	-12347
SIC	-12348
▁((!	-12349
openConnection	-12350
UD	-12351
rhs	-12352
▁dv	-12353
onom	-12354
▁Evalu	-12355
TableModel	-12356
▁implementations	-12357
isTrue	-12358
▁certificates	-12359
Chrono	-12360
TimeoutException	-12361
Lik	-12362
Txn	-12363
▁zz	-12364
measure	-12365
▁STATUS	-12366
isClosed	-12367
▁rewrite	-12368
subscribe	-12369
Datum	-12370
verted	-12371
INATION	-12372
▁bootstrap	-12373
NAMES	-12374
▁Assign	-12375
links	-12376
▁taking	-12377
▁trimmed	-12378
▁IJavaElement	-12379
BAR	-12380
pany	-12381
▁inf	-12382
Explicit	-12383
getNodes	-12384
▁blocking	-12385
grad	-12386
flip	-12387
ecause	-12388
lapping	-12389
▁publisher	-12390
▁purposes	-12391
▁Subscription	-12392
digit	-12393
▁guaranteed	-12394
▁retrieving	-12395
▁Vec	-12396
▁CountDownLatch	-12397
▁COM	-12398
▁really	-12399
Hold	-12400
rename	-12401
ABILITY	-12402
Closure	-12403
▁overrides	-12404
Dst	-12405
Img	-12406
Hover	-12407
▁Over	-12408
akReference	-12409
▁getWith	-12410
▁fieldType	-12411
▁folders	-12412
Graphic	-12413
▁Dependency	-12414
ople	-12415
Deletion	-12416
setInput	-12417
ips	-12418
Norm	-12419
peech	-12420
ServiceName	-12421
▁immutable	-12422
STAR	-12423
▁VAR	-12424
certificate	-12425
Win	-12426
▁finds	-12427
getCustom	-12428
SocketFactory	-12429
10.	-12430
orth	-12431
Probe	-12432
OrDefault	-12433
▁getIndex	-12434
▁lb	-12435
▁eas	-12436
Assist	-12437
override	-12438
getRelation	-12439
rich	-12440
SCA	-12441
▁Dig	-12442
IDDEN	-12443
▁opening	-12444
fi	-12445
▁constructed	-12446
getDescriptor	-12447
restException	-12448
▁facet	-12449
▁white	-12450
▁failures	-12451
wilioRestClient	-12452
Jdbc	-12453
▁maxLength	-12454
▁Completion	-12455
▁populated	-12456
SSF	-12457
sIn	-12458
▁"@	-12459
STOR	-12460
▁4;.	-12461
▁who	-12462
Dates	-12463
ugment	-12464
▁decoding	-12465
receive	-12466
Ignoring	-12467
getTypeName	-12468
getPrefix	-12469
modifiers	-12470
▁Workspace	-12471
NC	-12472
(')	-12473
calc	-12474
help	-12475
ABASE	-12476
Mismatch	-12477
inations	-12478
UTC	-12479
▁11	-12480
▁guess	-12481
▁Cor	-12482
▁delim	-12483
chat	-12484
▁prun	-12485
getCategory	-12486
▁First	-12487
▁patient	-12488
Ix	-12489
▁extend	-12490
▁ArrayUtils	-12491
WARD	-12492
cols	-12493
▁PRI	-12494
Intervals	-12495
▁endpoints	-12496
Placeholder	-12497
MessageContext	-12498
▁TTCN	-12499
********	-12500
bitField	-12501
Certificates	-12502
▁combination	-12503
jpa	-12504
getRowCount	-12505
CONTAINER	-12506
▁1][	-12507
▁SER	-12508
▁pat	-12509
minus	-12510
LineString	-12511
SUM	-12512
Drawing	-12513
▁minute	-12514
mimeType	-12515
▁players	-12516
▁findViewById	-12517
Itr	-12518
&#40;	-12519
delegate	-12520
getBuffer	-12521
▁extraParams	-12522
ffff	-12523
Deriv	-12524
small	-12525
Degree	-12526
▁getKey	-12527
▁Private	-12528
compareAndSet	-12529
functionAddress	-12530
(()	-12531
RESHOLD	-12532
getWindow	-12533
getOriginal	-12534
▁Pool	-12535
Invoked	-12536
TimeStamp	-12537
▁tv	-12538
Editing	-12539
▁regard	-12540
Subscriber	-12541
▁remainder	-12542
Limits	-12543
pipeline	-12544
ultiplic	-12545
▁reports	-12546
Air	-12547
reed	-12548
▁four	-12549
▁wiki	-12550
yyyy	-12551
▁foo	-12552
RequestMetrics	-12553
▁bw	-12554
▁cu	-12555
swers	-12556
▁SELE	-12557
ACC	-12558
▁rx	-12559
ZATION	-12560
haviour	-12561
▁activation	-12562
getPreferred	-12563
ieces	-12564
xffff	-12565
Energy	-12566
REQUIRED	-12567
▁discovery	-12568
Tech	-12569
Album	-12570
Meter	-12571
iding	-12572
▁largest	-12573
▁windows	-12574
▁FileUtil	-12575
IfNot	-12576
▁thus	-12577
▁trip	-12578
parated	-12579
▁Manifest	-12580
Kit	-12581
placement	-12582
▁Transfer	-12583
52	-12584
pb	-12585
Gran	-12586
Living	-12587
▁CT	-12588
ahead	-12589
replacement	-12590
Portal	-12591
Spring	-12592
Violation	-12593
53	-12594
alty	-12595
00000	-12596
SCREEN	-12597
▁piece	-12598
▁clusterName	-12599
FOL	-12600
getTest	-12601
▁inherited	-12602
▁management	-12603
▁dao	-12604
▁DateFormat	-12605
tm	-12606
INode	-12607
▁issuer	-12608
getMe	-12609
Unicode	-12610
('\\	-12611
Demand	-12612
▁Unicode	-12613
▁Ws	-12614
omb	-12615
dict	-12616
Daemon	-12617
▁bindUuid	-12618
arbage	-12619
Recorder	-12620
▁displayName	-12621
▁USER	-12622
contin	-12623
divide	-12624
▁Variant	-12625
getContentType	-12626
▁ow	-12627
Sites	-12628
ListItem	-12629
▁disconnect	-12630
▁parameterized	-12631
▁Password	-12632
Purchase	-12633
Transitions	-12634
xture	-12635
▁Program	-12636
mIs	-12637
clipse	-12638
leaf	-12639
▁undo	-12640
▁Topic	-12641
FONT	-12642
▁Lex	-12643
Wake	-12644
compiler	-12645
▁TimeZone	-12646
▁HttpClient	-12647
▁startOffset	-12648
Pub	-12649
rea	-12650
▁//	-12651
logging	-12652
GING	-12653
eral	-12654
▁drawing	-12655
▁station	-12656
setOutput	-12657
asl	-12658
rpc	-12659
iser	-12660
{}",	-12661
▁Linear	-12662
Exercise	-12663
Scenario	-12664
VARIABLE	-12665
Recording	-12666
▁Cached	-12667
dependency	-12668
▁li	-12669
isConnected	-12670
APPING	-12671
standard	-12672
setAuto	-12673
PM	-12674
▁quad	-12675
disconnect	-12676
accessToken	-12677
getDestination	-12678
▁ER	-12679
SIST	-12680
CUSTOM	-12681
DataStore	-12682
ResourceId	-12683
getPartition	-12684
▁FL	-12685
lias	-12686
SoFar	-12687
Showing	-12688
▁newSize	-12689
localhost	-12690
cy	-12691
ForKey	-12692
▁showing	-12693
1.0	-12694
▁cond	-12695
▁DEBUG	-12696
getTile	-12697
ASSIGN	-12698
cestors	-12699
Replaces	-12700
getRel	-12701
▁compiled	-12702
tools	-12703
ExtraParam	-12704
AtomContainer	-12705
▁propertyValue	-12706
already	-12707
PRESSION	-12708
getVariable	-12709
Deserializer	-12710
xf	-12711
▁Put	-12712
imize	-12713
▁Scal	-12714
Managers	-12715
classpath	-12716
predicate	-12717
Concurrent	-12718
▁getTarget	-12719
defaultValue	-12720
▁DataInputStream	-12721
▁ResourceBundle	-12722
metrics	-12723
completed	-12724
▁exponent	-12725
▁initiator	-12726
▁OK	-12727
basic	-12728
exist	-12729
Strict	-12730
FieldValue	-12731
mean	-12732
onal	-12733
rotate	-12734
readsheet	-12735
▁HO	-12736
Radi	-12737
secret	-12738
▁billing	-12739
▁routine	-12740
signal	-12741
▁concurrent	-12742
▁retValue	-12743
setLong	-12744
ymbolicName	-12745
Unmarshaller	-12746
(5,	-12747
Titan	-12748
▁Mime	-12749
Translator	-12750
▁Secret	-12751
uggested	-12752
AccountName	-12753
Interaction	-12754
▁18	-12755
ailure	-12756
▁affect	-12757
▁lambda	-12758
UC	-12759
[8	-12760
'");	-12761
▁Must	-12762
Conditional	-12763
Oid	-12764
JavaType	-12765
ARGS	-12766
rawl	-12767
▁futures	-12768
getMember	-12769
fromString	-12770
expect	-12771
Compression	-12772
ManagerFactory	-12773
▁Authorization	-12774
gg	-12775
alert	-12776
Presence	-12777
commerce	-12778
▁Modifier	-12779
▁convenience	-12780
nn	-12781
Hist	-12782
getNotifier	-12783
ACTER	-12784
Takes	-12785
Elapsed	-12786
PRIORITY	-12787
▁Semantic	-12788
▁cle	-12789
ampler	-12790
latest	-12791
RDF	-12792
pts	-12793
▁bg	-12794
▁rd	-12795
Receipt	-12796
▁chained	-12797
LC	-12798
PARTI	-12799
▁Copy	-12800
Rol	-12801
Searcher	-12802
▁profiles	-12803
▁httpClient	-12804
aiter	-12805
mCurrent	-12806
▁Static	-12807
▁Literal	-12808
Vendor	-12809
getMatch	-12810
pie	-12811
oster	-12812
▁compared	-12813
PD	-12814
SENT	-12815
auss	-12816
▁CRS	-12817
▁approx	-12818
otentially	-12819
Rev	-12820
▁pull	-12821
▁outline	-12822
fx	-12823
▁scalar	-12824
▁workspaceName	-12825
VK	-12826
minor	-12827
▁tz	-12828
KeyEvent	-12829
munity	-12830
▁spawn	-12831
AccessControl	-12832
▁bag	-12833
▁ddm	-12834
FOLLOW	-12835
▁presence	-12836
WEEK	-12837
igrate	-12838
Encounter	-12839
▁gradient	-12840
aut	-12841
Cond	-12842
MIME	-12843
Temporal	-12844
▁navigation	-12845
▁newInstance	-12846
CHANNEL	-12847
Attached	-12848
Counters	-12849
▁SwingUtilities	-12850
▁clientResponse	-12851
▁dict	-12852
▁integr	-12853
▁listed	-12854
IDENTIFIER	-12855
bra	-12856
BOUND	-12857
Incoming	-12858
▁KB	-12859
Bool	-12860
Rewrite	-12861
ensitivity	-12862
instruction	-12863
auge	-12864
half	-12865
▁acl	-12866
pin	-12867
perm	-12868
Ordinal	-12869
▁ViewGroup	-12870
▁xy	-12871
▁getId	-12872
▁finding	-12873
CacheEntry	-12874
▁fragments	-12875
▁oid	-12876
tokenizer	-12877
LER	-12878
))))	-12879
▁Leg	-12880
▁far	-12881
QUOTE	-12882
etries	-12883
tegers	-12884
▁creator	-12885
getOperator	-12886
HostException	-12887
▁TRAN	-12888
Keyboard	-12889
▁Expected	-12890
▁TestUtil	-12891
Transforms	-12892
▁transitions	-12893
(")	-12894
▁'*	-12895
utex	-12896
▁reflect	-12897
claim	-12898
▁Down	-12899
▁moving	-12900
Trailing	-12901
getRange	-12902
▁stem	-12903
▁yield	-12904
tempted	-12905
ermanagement	-12906
08	-12907
68	-12908
Integr	-12909
Coordinator	-12910
▁getContainer	-12911
ACCE	-12912
USED	-12913
ElementType	-12914
▁translated	-12915
PackageFragment	-12916
▁idle	-12917
SECURITY	-12918
ResponseHandler	-12919
▁FILE	-12920
Inside	-12921
▁printer	-12922
▁bounding	-12923
▁SAM	-12924
qualifier	-12925
hit	-12926
FACTORY	-12927
▁Metric	-12928
instances	-12929
openStream	-12930
ye	-12931
▁Icon	-12932
▁minY	-12933
Resize	-12934
AccessFile	-12935
EF	-12936
BOX	-12937
edges	-12938
sources	-12939
Fragments	-12940
ERIC	-12941
Resp	-12942
▁Ind	-12943
MEDIA	-12944
[0]));	-12945
propName	-12946
umulator	-12947
▁Identifier	-12948
▁enumeration	-12949
KS	-12950
▁timed	-12951
EndTime	-12952
▁Logical	-12953
TM	-12954
Hide	-12955
integer	-12956
▁predi	-12957
HostName	-12958
▁lineNumber	-12959
▁thumb	-12960
▁listOf	-12961
LogEntry	-12962
▁compact	-12963
▁assume	-12964
▁Windows	-12965
getPermission	-12966
>>>()	-12967
▁Dock	-12968
comput	-12969
▁TreeNode	-12970
Structural	-12971
future	-12972
getURL	-12973
worker	-12974
Makes	-12975
eting	-12976
▁Camera	-12977
▁making	-12978
Correction	-12979
USTER	-12980
▁startup	-12981
IpAddress	-12982
▁Compound	-12983
interfaces	-12984
▁attribList	-12985
2()	-12986
unded	-12987
TypeDefinition	-12988
Slider	-12989
stored	-12990
▁Param	-12991
▁getView	-12992
Distributed	-12993
usermanagement	-12994
Footer	-12995
Deferred	-12996
▁dm	-12997
SIDE	-12998
PROXY	-12999
veloper	-13000
BOL	-13001
▁RFC	-13002
2).	-13003
▁ff	-13004
<>());	-13005
▁buckets	-13006
getControl	-13007
MEN	-13008
▁Ui	-13009
▁maxSize	-13010
Mut	-13011
▁4.	-13012
Chord	-13013
finished	-13014
SENSITIVE	-13015
getNextToken	-13016
▁Is	-13017
usic	-13018
▁Zone	-13019
▁appended	-13020
▁newValues	-13021
;/	-13022
ats	-13023
seen	-13024
Vpc	-13025
oost	-13026
Recommendation	-13027
getElementText	-13028
CONNECTED	-13029
▁Binder	-13030
REPORT	-13031
▁fromIndex	-13032
subscription	-13033
PEG	-13034
Grad	-13035
▁Raw	-13036
Clazz	-13037
disabled	-13038
orum	-13039
▁incre	-13040
▁changing	-13041
Adjustment	-13042
▁percentage	-13043
LAIN	-13044
Arrow	-13045
Predi	-13046
VALUES	-13047
Retries	-13048
[4];	-13049
COLLE	-13050
▁dataSet	-13051
▁human	-13052
Leading	-13053
MANAGER	-13054
Strength	-13055
video	-13056
loading	-13057
Included	-13058
▁tooltip	-13059
▁Transformation	-13060
fast	-13061
Globals	-13062
Redu	-13063
▁Missing	-13064
▁generates	-13065
(100);	-13066
RexNode	-13067
▁toRemove	-13068
Referenced	-13069
bt	-13070
IRI	-13071
rethrow	-13072
▁namespaceuri	-13073
Tiles	-13074
▁nodeName	-13075
▁reflection	-13076
stackSize	-13077
clientResponse	-13078
▁latch	-13079
▁encoder	-13080
Director	-13081
isRe	-13082
phrase	-13083
▁Compute	-13084
Em	-13085
derr	-13086
urator	-13087
▁belongs	-13088
▁smallest	-13089
nextDouble	-13090
▁deprecated	-13091
ereo	-13092
Axiom	-13093
▁NEXT	-13094
oubles	-13095
▁ontology	-13096
putIfAbsent	-13097
Eff	-13098
otos	-13099
▁Section	-13100
setAction	-13101
▁HE	-13102
toURL	-13103
Subtree	-13104
isError	-13105
getColumns	-13106
offer	-13107
roles	-13108
lder	-13109
lope	-13110
Certs	-13111
▁Info	-13112
addItem	-13113
▁observed	-13114
getGroupId	-13115
▁JsonArray	-13116
getUsername	-13117
▁mm	-13118
FFFF	-13119
BUILD	-13120
▁neighbor	-13121
▁interceptor	-13122
▁stroke	-13123
Specified	-13124
▁namespaces	-13125
('"	-13126
loss	-13127
ppos	-13128
▁EJB	-13129
COMMIT	-13130
▁warnings	-13131
▁validated	-13132
▁50	-13133
▁lazy	-13134
merged	-13135
▁PD	-13136
BITS	-13137
Cart	-13138
▁INST	-13139
country	-13140
inancial	-13141
▁prefixes	-13142
getCanonicalName	-13143
(2));	-13144
▁sibling	-13145
▁targetType	-13146
####	-13147
setError	-13148
▁adapted	-13149
Compressed	-13150
getColumnCount	-13151
FP	-13152
_5	-13153
Deque	-13154
Closes	-13155
DEFINI	-13156
Aligned	-13157
eventType	-13158
getThread	-13159
▁collected	-13160
getProvider	-13161
▁parentNode	-13162
▁Split	-13163
▁numOf	-13164
▁Polygon	-13165
duce	-13166
▁BuildException	-13167
▁'/'	-13168
▁subtree	-13169
Expansion	-13170
italAsset	-13171
▁Snapshot	-13172
getFactory	-13173
▁unlock	-13174
TX	-13175
GLOBAL	-13176
▁instant	-13177
EventHandler	-13178
FY	-13179
Spans	-13180
▁leave	-13181
Temporary	-13182
▁incorrect	-13183
▁currentIndex	-13184
PY	-13185
Plane	-13186
▁CHAR	-13187
▁phrase	-13188
Traversal	-13189
▁JComponent	-13190
SCROLL	-13191
Settlement	-13192
ProgressListener	-13193
fr	-13194
exc	-13195
(':');	-13196
ILL	-13197
payment	-13198
bi	-13199
RESOL	-13200
▁salt	-13201
Monitoring	-13202
▁Accessible	-13203
getTableName	-13204
Employee	-13205
▁getDocument	-13206
PROFILE	-13207
▁invoice	-13208
▁tagName	-13209
CommandLine	-13210
Vpn	-13211
▁vendor	-13212
ResourceName	-13213
▁Recognition	-13214
BIG	-13215
▁'_	-13216
Ledger	-13217
Tracks	-13218
entities	-13219
OWN	-13220
▁migration	-13221
pd	-13222
win	-13223
▁ship	-13224
▁rotate	-13225
▁estimate	-13226
EDIT	-13227
getProcess	-13228
▁undefined	-13229
VirtualMachine	-13230
rac	-13231
▁terminal	-13232
assignment	-13233
▁committed	-13234
2];	-13235
prom	-13236
▁photo	-13237
Prepare	-13238
ALT	-13239
▁passing	-13240
▁treated	-13241
ifer	-13242
stage	-13243
▁extras	-13244
▁concrete	-13245
aux	-13246
getCanonicalPath	-13247
.)	-13248
▁ALL	-13249
▁Full	-13250
▁rowCount	-13251
cost	-13252
ToInt	-13253
▁fold	-13254
▁meaning	-13255
ermark	-13256
inverse	-13257
▁'.'	-13258
Identification	-13259
define	-13260
▁constants	-13261
▁Accessibility	-13262
Defin	-13263
liest	-13264
▁rval	-13265
▁Write	-13266
uplicated	-13267
▁things	-13268
▁mandatory	-13269
ItemId	-13270
Ast	-13271
vec	-13272
Icons	-13273
xFFFF	-13274
Spatial	-13275
THRESHOLD	-13276
▁dispatcher	-13277
SYNC	-13278
Initi	-13279
tracts	-13280
▁semantic	-13281
erical	-13282
edBy	-13283
advance	-13284
▁portion	-13285
3",	-13286
Course	-13287
▁MS	-13288
▁probe	-13289
▁endOffset	-13290
▁typically	-13291
getFullPath	-13292
decessor	-13293
worldObj	-13294
Criterion	-13295
▁assignments	-13296
answer	-13297
Closing	-13298
Restart	-13299
▁utility	-13300
▁Mis	-13301
getOp	-13302
Transl	-13303
unused	-13304
getGraph	-13305
▁btn	-13306
▁organ	-13307
Entitlement	-13308
▁protection	-13309
nl	-13310
enk	-13311
strings	-13312
vocations	-13313
▁RGB	-13314
issue	-13315
Recognition	-13316
▁GridLayout	-13317
cv	-13318
Mutation	-13319
hostname	-13320
▁clientId	-13321
▁lastIndex	-13322
Tour	-13323
broker	-13324
▁Broker	-13325
▁defines	-13326
Hive	-13327
joint	-13328
QUENCE	-13329
▁Timber	-13330
Estimate	-13331
INIT	-13332
▁infos	-13333
▁Google	-13334
▁peptide	-13335
▁usually	-13336
▁allocate	-13337
▁mechanism	-13338
padding	-13339
viction	-13340
▁testExec	-13341
Cas	-13342
DESC	-13343
ENTER	-13344
▁alter	-13345
newLine	-13346
>[]	-13347
csv	-13348
▁'/')	-13349
atermark	-13350
Predicates	-13351
[_	-13352
▁Rece	-13353
▁ln	-13354
CONTROL	-13355
nonNull	-13356
▁pageSize	-13357
▁rendered	-13358
▁compareTo	-13359
ObjectInspector	-13360
dao	-13361
Assets	-13362
ExecuteTime	-13363
WO	-13364
)";	-13365
▁IM	-13366
finest	-13367
▁initi	-13368
AccessToken	-13369
getDataType	-13370
incrementAndGet	-13371
yb	-13372
▁'+	-13373
racle	-13374
▁freq	-13375
emptySet	-13376
▁tenantId	-13377
▁PAT	-13378
forms	-13379
▁beans	-13380
Squared	-13381
isDisposed	-13382
unexpected	-13383
▁requirements	-13384
arer	-13385
▁Widget	-13386
▁ascending	-13387
RootNode	-13388
▁interpreted	-13389
Firewall	-13390
getFloat	-13391
▁efficient	-13392
▁micro	-13393
composite	-13394
Normalized	-13395
DefaultValue	-13396
resp	-13397
▁held	-13398
▁appId	-13399
getSort	-13400
atabases	-13401
readable	-13402
▁snap	-13403
▁tiles	-13404
Evaluate	-13405
analysis	-13406
('/');	-13407
getCap	-13408
uspended	-13409
Requirement	-13410
esture	-13411
Relations	-13412
▁paramName	-13413
▁il	-13414
Axes	-13415
Delayed	-13416
MODIFIED	-13417
TokenType	-13418
65	-13419
mts	-13420
avascript	-13421
horizontal	-13422
IGNO	-13423
does	-13424
▁DATA	-13425
▁jobId	-13426
absolute	-13427
getParam	-13428
renderer	-13429
Md	-13430
determ	-13431
BORDER	-13432
ularity	-13433
attachment	-13434
AttributeType	-13435
Cli	-13436
▁Co	-13437
64(	-13438
▁saving	-13439
▁combine	-13440
canonical	-13441
duplicate	-13442
IfNecessary	-13443
FOC	-13444
▁ending	-13445
gap	-13446
▁'<	-13447
Leader	-13448
▁evaluated	-13449
Voice	-13450
Multipart	-13451
checkState	-13452
▁pressed	-13453
getAmount	-13454
DROP	-13455
▁100)	-13456
Domains	-13457
▁Journal	-13458
ServletContext	-13459
Press	-13460
Thumb	-13461
insic	-13462
▁consistency	-13463
▁5);	-13464
CacheKey	-13465
▁Monitor	-13466
AttributeName	-13467
▁;.	-13468
▁READ	-13469
uts	-13470
slice	-13471
▁mismatch	-13472
WRAP	-13473
margin	-13474
▁TreePath	-13475
Conversation	-13476
War	-13477
Catch	-13478
Degrees	-13479
Formatted	-13480
▁persisted	-13481
▁classloader	-13482
▁song	-13483
Io	-13484
▁'[	-13485
eled	-13486
▁ASN	-13487
earch	-13488
▁INTER	-13489
▁study	-13490
writeByte	-13491
▁insertion	-13492
rink	-13493
▁hard	-13494
ua	-13495
▁tot	-13496
IdList	-13497
▁maxY	-13498
▁Empty	-13499
Partner	-13500
assertTrue	-13501
asures	-13502
TAB	-13503
mut	-13504
Bases	-13505
▁album	-13506
▁getState	-13507
READY	-13508
align	-13509
Contest	-13510
changes	-13511
▁square	-13512
commands	-13513
▁important	-13514
▁OB	-13515
leases	-13516
Requirements	-13517
▁iw	-13518
cleanup	-13519
getUnit	-13520
▁Sparse	-13521
Tok	-13522
ina	-13523
▁severity	-13524
▁tracking	-13525
qn	-13526
▁aff	-13527
▁dirs	-13528
▁Surface	-13529
▁filtering	-13530
UG	-13531
Opens	-13532
▁10000	-13533
▁1.0)	-13534
▁[{}]	-13535
▁soap	-13536
returnType	-13537
Toggle	-13538
Listing	-13539
▁operands	-13540
2();	-13541
Organ	-13542
modify	-13543
Handshake	-13544
https	-13545
Drawer	-13546
getRule	-13547
▁online	-13548
Calculator	-13549
getContents	-13550
plane	-13551
groupName	-13552
▁unchanged	-13553
▁prediction	-13554
▁IAST	-13555
Square	-13556
itives	-13557
▁please	-13558
▁(--	-13559
▁APP	-13560
▁mIs	-13561
enkins	-13562
▁quoted	-13563
▁(1.0	-13564
▁Deployment	-13565
phan	-13566
Draws	-13567
▁arrow	-13568
Executors	-13569
delimiter	-13570
setBounds	-13571
▁GrouperSession	-13572
-11	-13573
▁aws	-13574
▁jms	-13575
Endian	-13576
MPP	-13577
▁"["	-13578
Schemas	-13579
ExitCode	-13580
▁vectors	-13581
▁lastModified	-13582
ToRead	-13583
Serialized	-13584
separatorChar	-13585
zk	-13586
▁8,	-13587
ilot	-13588
getLink	-13589
Playback	-13590
getSignature	-13591
▁alternative	-13592
heel	-13593
▁few	-13594
creen	-13595
getByte	-13596
BEGIN	-13597
bidden	-13598
▁chooser	-13599
!--	-13600
attempt	-13601
grammar	-13602
▁win	-13603
ights	-13604
spring	-13605
Problems	-13606
floatValue	-13607
▁internally	-13608
Helpers	-13609
chedules	-13610
sessionId	-13611
FB	-13612
.).	-13613
cons	-13614
▁SIZE	-13615
▁DOUBLE	-13616
ereotype	-13617
AccountId	-13618
ito	-13619
ENTIC	-13620
Moved	-13621
Saves	-13622
WINDOW	-13623
isDigit	-13624
▁figure	-13625
▁authenticate	-13626
BufferedReader	-13627
▁serialization	-13628
terms	-13629
getWeb	-13630
signum	-13631
ToolBar	-13632
ircular	-13633
Excluded	-13634
Corner	-13635
repeat	-13636
▁VisADException	-13637
VOL	-13638
▁3]	-13639
▁GC	-13640
▁paragraph	-13641
▁statusCode	-13642
hold	-13643
TypeCode	-13644
LineNumber	-13645
(10);	-13646
isDone	-13647
▁robot	-13648
▁gallery	-13649
▁scaling	-13650
afely	-13651
getPer	-13652
▁Shell	-13653
▁Driver	-13654
authorization	-13655
CMD	-13656
▁5:	-13657
ascade	-13658
okhttp	-13659
setLabel	-13660
▁Instant	-13661
▁listNext	-13662
ayes	-13663
viewer	-13664
addInput	-13665
permissions	-13666
▁TE	-13667
▁Mail	-13668
hadoop	-13669
constructor	-13670
[1])	-13671
Spawn	-13672
▁others	-13673
ils	-13674
deep	-13675
setting	-13676
DSComment	-13677
FileFilter	-13678
crs	-13679
Trees	-13680
▁getH	-13681
Quoted	-13682
lapsed	-13683
Clicked	-13684
▁IJ	-13685
000;	-13686
▁Counter	-13687
▁instanceId	-13688
authentication	-13689
NT	-13690
Ticket	-13691
percent	-13692
▁causes	-13693
ND	-13694
▁Ge	-13695
&#41;	-13696
▁Priority	-13697
closeQuietly	-13698
xies	-13699
EqualTo	-13700
▁attrName	-13701
startEvent	-13702
▁Exceptions	-13703
MutableTreeNode	-13704
32.	-13705
ols	-13706
DEST	-13707
▁Cert	-13708
▁getJ	-13709
pposite	-13710
getCenter	-13711
BufferedImage	-13712
aste	-13713
▁May	-13714
▁population	-13715
getComponentType	-13716
Identities	-13717
Production	-13718
Alternative	-13719
ierarchical	-13720
Via	-13721
Plain	-13722
Processors	-13723
transition	-13724
▁tip	-13725
▁ACTION	-13726
Occurrence	-13727
registered	-13728
▁relations	-13729
▁activities	-13730
▁getConfig	-13731
Transactional	-13732
pense	-13733
Coding	-13734
REMOVE	-13735
▁triggered	-13736
deserialize	-13737
Pools	-13738
▁MathHelper	-13739
getLocalString	-13740
▁ctPersistence	-13741
Loo	-13742
[1][	-13743
▁leader	-13744
▁From	-13745
▁Space	-13746
▁"'.");	-13747
imp	-13748
isk	-13749
▁nt	-13750
HIGH	-13751
▁contacts	-13752
Restrictions	-13753
▁'0'	-13754
COVER	-13755
▁grow	-13756
(1000);	-13757
▁collections	-13758
ICE	-13759
▁Parcel	-13760
arded	-13761
Baseline	-13762
▁getTest	-13763
relationship	-13764
rgb	-13765
visited	-13766
SETTINGS	-13767
DEFINITION	-13768
elapsed	-13769
getRecord	-13770
Continuous	-13771
▁startDate	-13772
(',');	-13773
Sending	-13774
IProject	-13775
sip	-13776
Lease	-13777
▁getB	-13778
ership	-13779
▁divisor	-13780
▁resourceId	-13781
ITS	-13782
ept	-13783
Minor	-13784
▁kaleo	-13785
Overlap	-13786
▁ud	-13787
href	-13788
adapt	-13789
Soft	-13790
▁mom	-13791
targets	-13792
▁Cipher	-13793
▁exclusive	-13794
Fn	-13795
ned	-13796
▁caret	-13797
TestUtils	-13798
▁HttpMethod	-13799
▁bot	-13800
Provides	-13801
addSelection	-13802
▁Conf	-13803
▁minX	-13804
▁Proto	-13805
StringBuffer	-13806
._201	-13807
▁RexNode	-13808
▁Currently	-13809
▁ll	-13810
Crop	-13811
▁rex	-13812
Localized	-13813
▁fil	-13814
itter	-13815
▁Find	-13816
▁capt	-13817
iversal	-13818
squareup	-13819
SelectionEvent	-13820
AE	-13821
▁alg	-13822
▁goal	-13823
ALIZED	-13824
Opts	-13825
▁"))	-13826
▁EnumSet	-13827
StringValue	-13828
Sms	-13829
enders	-13830
NodeMap	-13831
NextPage	-13832
Major	-13833
Retained	-13834
▁cancelled	-13835
ParameterValue	-13836
KER	-13837
oscal	-13838
▁MODE	-13839
createNew	-13840
getSelectedItem	-13841
disk	-13842
agnitude	-13843
NOTIFICATION	-13844
normalized	-13845
▁JR	-13846
swap	-13847
▁pagination	-13848
▁bos	-13849
▁accum	-13850
▁purpose	-13851
See	-13852
MAPPING	-13853
visions	-13854
▁generating	-13855
ResponseType	-13856
NN	-13857
loom	-13858
HA	-13859
▁Diff	-13860
Merged	-13861
manifest	-13862
ga	-13863
▁eff	-13864
Sleep	-13865
COMPLETE	-13866
Inclusive	-13867
▁maxWidth	-13868
Specifications	-13869
1];	-13870
pens	-13871
Extras	-13872
MARKER	-13873
▁whenever	-13874
Ground	-13875
ScrollPane	-13876
_8);	-13877
▁sqle	-13878
escaped	-13879
Injection	-13880
ResponseJs	-13881
Classification	-13882
▁fCurrentEntity	-13883
▁*)	-13884
(10,	-13885
ForUser	-13886
▁closure	-13887
▁jarFile	-13888
▁0");	-13889
compound	-13890
Subscriptions	-13891
(-1,	-13892
comb	-13893
major	-13894
MessageType	-13895
Seg	-13896
▁certs	-13897
▁deleting	-13898
classLoader	-13899
▁Qu	-13900
▁radix	-13901
▁getWidth	-13902
▁InputSource	-13903
energy	-13904
VERTICAL	-13905
EntityType	-13906
Concurrency	-13907
Bars	-13908
aily	-13909
▁illegal	-13910
BODY	-13911
[2],	-13912
Continue	-13913
XmlString	-13914
▁getHeight	-13915
bn	-13916
warded	-13917
▁feedback	-13918
▁ComponentName	-13919
▁"{}	-13920
Looks	-13921
sumes	-13922
▁Span	-13923
▁ctor	-13924
istrator	-13925
planation	-13926
UpperBound	-13927
▁Description	-13928
Less	-13929
uals	-13930
▁qPos	-13931
scribed	-13932
▁interest	-13933
▁validity	-13934
▁getClient	-13935
intersection	-13936
Ahead	-13937
Minus	-13938
▁tensor	-13939
Provision	-13940
▁activate	-13941
Unavailable	-13942
utting	-13943
Palette	-13944
projects	-13945
Cardinality	-13946
Queued	-13947
getPixel	-13948
Peak	-13949
Seek	-13950
Once	-13951
abric	-13952
▁Subclasses	-13953
FoundException	-13954
asper	-13955
posals	-13956
▁analyzer	-13957
▁probably	-13958
NetworkInterface	-13959
unable	-13960
redient	-13961
consistent	-13962
▁searching	-13963
▁editing	-13964
JobRequest	-13965
▁Credential	-13966
▁"}	-13967
▁24)	-13968
pacity	-13969
ClassNames	-13970
AFTER	-13971
PHONE	-13972
▁TEST	-13973
Obtain	-13974
carded	-13975
▁colon	-13976
▁theta	-13977
Regular	-13978
▁Manager	-13979
▁Conversion	-13980
▁construction	-13981
▁currentValue	-13982
Some	-13983
Trait	-13984
avings	-13985
▁routes	-13986
▁accessed	-13987
RequestParam	-13988
IFile	-13989
InUse	-13990
sibility	-13991
▁Comment	-13992
▁discard	-13993
▁rootNode	-13994
FileStatus	-13995
▁converting	-13996
▁Preferences	-13997
UNK	-13998
yes	-13999
DONE	-14000
hour	-14001
finity	-14002
enger	-14003
waiting	-14004
Indicates	-14005
▁Av	-14006
▁ks	-14007
....	-14008
uccess	-14009
▁extent	-14010
StackSize	-14011
RON	-14012
INCT	-14013
rans	-14014
▁Two	-14015
PLAIN	-14016
replaceFirst	-14017
(".");	-14018
calcul	-14019
▁scopes	-14020
▁artifacts	-14021
Agg	-14022
JEC	-14023
ABET	-14024
NEXT	-14025
QUEUE	-14026
Locks	-14027
ufact	-14028
▁tabs	-14029
attrName	-14030
▁Elastic	-14031
srcOffset	-14032
COMPANY	-14033
positions	-14034
getGeneric	-14035
Wid	-14036
embed	-14037
antics	-14038
italize	-14039
▁compatibility	-14040
TEN	-14041
▁become	-14042
▁proposal	-14043
Observation	-14044
amodel	-14045
attack	-14046
reatment	-14047
▁Library	-14048
▁neighbors	-14049
vr	-14050
▁raf	-14051
Azure	-14052
▁SELECT	-14053
▁coding	-14054
recognized	-14055
▁accountId	-14056
finer	-14057
▁tested	-14058
Likelihood	-14059
▁lifecycle	-14060
LV	-14061
NL	-14062
▁'>	-14063
Fatal	-14064
▁blue	-14065
▁bulk	-14066
Locals	-14067
▁Design	-14068
▁though	-14069
FORMATION	-14070
HI	-14071
▁0.0,	-14072
millis	-14073
formance	-14074
▁scratch	-14075
▁therefore	-14076
bservations	-14077
▁participant	-14078
Elt	-14079
-8"));	-14080
getFullName	-14081
.2	-14082
CG	-14083
FX	-14084
yg	-14085
▁vt	-14086
OrThrow	-14087
▁getRoot	-14088
pur	-14089
▁Py	-14090
▁Move	-14091
Nature	-14092
Particle	-14093
▁sid	-14094
▁likely	-14095
ClassInfo	-14096
▁everything	-14097
▁Cap	-14098
▁gran	-14099
▁endOf	-14100
▁employee	-14101
▁UserHandle	-14102
▁subscriber	-14103
ftp	-14104
LIGHT	-14105
Party	-14106
CharAt	-14107
Choices	-14108
AINT	-14109
Prints	-14110
getScope	-14111
▁setTags	-14112
▁notified	-14113
isInfinite	-14114
▁completely	-14115
getItemCount	-14116
dm	-14117
Amt	-14118
BEAN	-14119
▁Failed	-14120
▁copies	-14121
▁Algorithm	-14122
getU	-14123
▁pay	-14124
▁epoch	-14125
▁classname	-14126
▁BorderLayout	-14127
▁checkArgument	-14128
▁maxX	-14129
KEYCODE	-14130
▁fmt	-14131
getEncoded	-14132
getInteger	-14133
.0)	-14134
EJB	-14135
▁imports	-14136
▁pf	-14137
have	-14138
OfMonth	-14139
▁Scanner	-14140
PolicyName	-14141
▁WS	-14142
▁Uses	-14143
▁vault	-14144
▁analyze	-14145
otypes	-14146
accountId	-14147
▁RectangleEdge	-14148
ENCY	-14149
Facing	-14150
▁locks	-14151
▁quota	-14152
Stopped	-14153
▁Messaging	-14154
heap	-14155
Descr	-14156
Ingest	-14157
▁runner	-14158
declared	-14159
Interrupt	-14160
▁Instanti	-14161
▁jpa	-14162
paper	-14163
▁getActive	-14164
▁paramTypes	-14165
▁kill	-14166
▁Marker	-14167
EXPRESSION	-14168
▁currentState	-14169
Tbl	-14170
URLs	-14171
▁lst	-14172
ACKET	-14173
ToUpdate	-14174
▁computation	-14175
Wrapped	-14176
▁FINDER	-14177
▁Folder	-14178
▁Throws	-14179
▁ut	-14180
▁nsUri	-14181
setResult	-14182
vict	-14183
▁"2021	-14184
▁tempFile	-14185
ObjectClass	-14186
▁terminated	-14187
obs	-14188
onym	-14189
pection	-14190
▁limits	-14191
▁1])	-14192
▁mgr	-14193
Unused	-14194
isions	-14195
readByte	-14196
getInternal	-14197
drag	-14198
IMPORT	-14199
Signer	-14200
inject	-14201
aussian	-14202
pw	-14203
▁endDate	-14204
▁campaign	-14205
OrBuilderList	-14206
1),	-14207
▁MUST	-14208
Rename	-14209
listIterator	-14210
FILES	-14211
▁star	-14212
▁HttpHeaders	-14213
▁coefficients	-14214
._2011.	-14215
repaint	-14216
Connectivity	-14217
Psi	-14218
MENTS	-14219
▁beta	-14220
exceptions	-14221
metaType	-14222
TagListBlock	-14223
flu	-14224
ntk	-14225
CHILD	-14226
getIdentity	-14227
mgr	-14228
][0]	-14229
endants	-14230
Termination	-14231
▁DL	-14232
take	-14233
▁Adds	-14234
PECTED	-14235
▁itemstack	-14236
LastModified	-14237
Nav	-14238
▁lr	-14239
Topics	-14240
emonic	-14241
▁Insets	-14242
drawLine	-14243
BD	-14244
nil	-14245
▁Struct	-14246
getErrorCode	-14247
▁sso	-14248
iferay	-14249
▁100);	-14250
une	-14251
ANTI	-14252
▁Should	-14253
Objective	-14254
associate	-14255
▁SUB	-14256
ORIZED	-14257
▁newData	-14258
▁builds	-14259
Activator	-14260
▁foreground	-14261
▁recommended	-14262
APH	-14263
Credit	-14264
▁ticket	-14265
plication	-14266
▁hostName	-14267
▁IWorkbench	-14268
▁traverse	-14269
numAttributes	-14270
Ren	-14271
INVO	-14272
▁Jsp	-14273
▁maxValue	-14274
▁outputFile	-14275
▁{}:	-14276
handled	-14277
ocialActivity	-14278
▁ta	-14279
▁Poly	-14280
setItem	-14281
▁VALUES	-14282
fieldType	-14283
▁TextView	-14284
▁diagram	-14285
StartOffset	-14286
▁getRequest	-14287
JOIN	-14288
Trying	-14289
samples	-14290
Multiplier	-14291
▁tt	-14292
("")	-14293
rival	-14294
starting	-14295
Vocabulary	-14296
PLY	-14297
Caret	-14298
▁prep	-14299
corded	-14300
▁debugging	-14301
SIP	-14302
getRef	-14303
ooKeeper	-14304
▁indicator	-14305
▁specifying	-14306
▁da	-14307
codes	-14308
Serialize	-14309
Appearance	-14310
lineSeparator	-14311
▁places	-14312
oldValue	-14313
▁fieldValue	-14314
ClasspathEntry	-14315
asString	-14316
51	-14317
▁Url	-14318
aping	-14319
DETAIL	-14320
canvas	-14321
▁wrapping	-14322
credential	-14323
DirPath	-14324
xs	-14325
▁PL	-14326
▁FIN	-14327
unregister	-14328
▁indicated	-14329
DIM	-14330
quivalence	-14331
\"");	-14332
STORAGE	-14333
▁encrypt	-14334
Closeable	-14335
setElement	-14336
▁verification	-14337
▁wsdl	-14338
REPLACE	-14339
setTarget	-14340
ContentProvider	-14341
ioe	-14342
▁CF	-14343
▁Lat	-14344
▁flatten	-14345
▁getResources	-14346
▁responseHandler	-14347
omaly	-14348
getPos	-14349
oi	-14350
lemy	-14351
▁"".	-14352
crimin	-14353
arehouse	-14354
getMaximum	-14355
▁ChatColor	-14356
▁ActionListener	-14357
Painter	-14358
Continuation	-14359
LR	-14360
rg	-14361
HIR	-14362
Gain	-14363
▁mesh	-14364
Compact	-14365
DECIMAL	-14366
▁epsilon	-14367
▁RESOURCE	-14368
▁production	-14369
but	-14370
Containing	-14371
Prediction	-14372
getAdapter	-14373
xsd	-14374
▁Ret	-14375
Comma	-14376
Operators	-14377
Retention	-14378
▁Mesquite	-14379
BlockState	-14380
()",	-14381
During	-14382
Locales	-14383
▁Values	-14384
▁attributeValue	-14385
GRESS	-14386
queryObject	-14387
▁DNS	-14388
={}",	-14389
oodie	-14390
▁Book	-14391
Writing	-14392
▁ordinal	-14393
apiClient	-14394
Yaw	-14395
▁lost	-14396
Triangle	-14397
▁Payment	-14398
▁BE	-14399
▁Pop	-14400
numeric	-14401
▁joined	-14402
Bootstrap	-14403
Curr	-14404
▁pdf	-14405
OTHER	-14406
linear	-14407
▁thumbnail	-14408
▁xs	-14409
Stri	-14410
middle	-14411
tables	-14412
SELECTION	-14413
uzzy	-14414
Nominal	-14415
▁Trigger	-14416
getMethods	-14417
team	-14418
toJson	-14419
▁trees	-14420
Offline	-14421
preferred	-14422
▁emp	-14423
▁exported	-14424
OptionValue	-14425
ww	-14426
got	-14427
TOOL	-14428
DISABLED	-14429
▁UNKNOWN	-14430
Specifier	-14431
▁Dom	-14432
MILLIS	-14433
records	-14434
GraphNode	-14435
▁baseline	-14436
logException	-14437
▁Env	-14438
▁JMS	-14439
getDb	-14440
lings	-14441
getBegin	-14442
listNext	-14443
Incorrect	-14444
EntityException	-14445
amil	-14446
▁tgt	-14447
▁combin	-14448
▁longest	-14449
numInstances	-14450
acman	-14451
coding	-14452
▁sanit	-14453
GridData	-14454
▁orderBy	-14455
SequenceNumber	-14456
▁lead	-14457
getActual	-14458
▁released	-14459
▁:"	-14460
called	-14461
▁granted	-14462
(1.0	-14463
▁exam	-14464
▁getSub	-14465
quential	-14466
localVarAccept	-14467
gd	-14468
share	-14469
Protocols	-14470
▁normally	-14471
▁alternate	-14472
proj	-14473
▁JDK	-14474
Above	-14475
plicated	-14476
▁degrees	-14477
delivery	-14478
StatusCode	-14479
WEST	-14480
Strip	-14481
▁cart	-14482
Verbose	-14483
getScale	-14484
▁compress	-14485
Cls	-14486
SEND	-14487
currentNode	-14488
▁ImmutableSet	-14489
mv	-14490
Tex	-14491
sdk	-14492
ybrid	-14493
▁findByC	-14494
▁newline	-14495
getSymbol	-14496
▁crop	-14497
▁pretty	-14498
▁maintain	-14499
▁flat	-14500
stride	-14501
Factories	-14502
ResourceBundle	-14503
)];	-14504
Abort	-14505
▁Deleg	-14506
▁Engine	-14507
CellRenderer	-14508
lets	-14509
()[0];	-14510
setAttr	-14511
▁motion	-14512
▁libraries	-14513
ultiplicity	-14514
▁dos	-14515
!!");	-14516
▁Maps	-14517
inputs	-14518
PdfName	-14519
▁writable	-14520
▁replacing	-14521
▁checkState	-14522
EndOf	-14523
Lambda	-14524
hidden	-14525
Focused	-14526
Ordering	-14527
Products	-14528
successful	-14529
Interpreter	-14530
▁ray	-14531
ifold	-14532
()]));	-14533
▁Secure	-14534
ConfigFile	-14535
▁bufferSize	-14536
Sky	-14537
▁Peer	-14538
chieve	-14539
InstanceName	-14540
createTempFile	-14541
46	-14542
rem	-14543
ributions	-14544
ConnectionName	-14545
)"	-14546
Mediator	-14547
FileDescriptor	-14548
▁notifyChanged	-14549
syntax	-14550
TypeReference	-14551
(2)	-14552
Sel	-14553
:"))	-14554
Integration	-14555
Pk	-14556
▁moves	-14557
CategoryId	-14558
ofNullable	-14559
getAsJsonObject	-14560
reduce	-14561
▁associate	-14562
setPosition	-14563
▁JAR	-14564
▁subtype	-14565
▁Refactoring	-14566
Swing	-14567
SELECTED	-14568
enclosing	-14569
▁relativePath	-14570
ari	-14571
GroupIds	-14572
▁ensures	-14573
deprecation	-14574
AbsolutePath	-14575
setToolTipText	-14576
(0.	-14577
pdf	-14578
Half	-14579
Friendly	-14580
COMPANYID	-14581
coverable	-14582
getPrevious	-14583
▁dfs	-14584
▁toggle	-14585
ValueMap	-14586
▁handshake	-14587
▁Str	-14588
▁Volt	-14589
getGame	-14590
sampling	-14591
audit	-14592
ALLOWED	-14593
ArrayOf	-14594
Lengths	-14595
getPropertyName	-14596
Wall	-14597
coll	-14598
▁INDEX	-14599
▁owned	-14600
▁ListWorkRequest	-14601
Mech	-14602
Ping	-14603
alone	-14604
▁Attr	-14605
▁ImmutableMap	-14606
atile	-14607
CREATED	-14608
decoded	-14609
getLock	-14610
▁hasNext	-14611
VC	-14612
CER	-14613
▁cid	-14614
▁METHOD	-14615
getMinimum	-14616
TemplateRule	-14617
CW	-14618
_1_	-14619
...",	-14620
▁queued	-14621
RelativePath	-14622
▁nav	-14623
▁DataSet	-14624
CONDITION	-14625
ZONE	-14626
Effects	-14627
▁Problem	-14628
ISTR	-14629
ENTIAL	-14630
images	-14631
▁Normal	-14632
COLLECTION	-14633
▁JavaScript	-14634
ancy	-14635
poly	-14636
Milli	-14637
▁MIME	-14638
Resume	-14639
exchange	-14640
nodeName	-14641
getWriter	-14642
ducer	-14643
declar	-14644
▁invol	-14645
getProxy	-14646
Activated	-14647
▁Implement	-14648
▁childNode	-14649
EB	-14650
▁pg	-14651
Throttle	-14652
▁duplicates	-14653
Applications	-14654
tw	-14655
001	-14656
UAGE	-14657
Circle	-14658
getCre	-14659
getForm	-14660
getWorkbench	-14661
▁WebApplication	-14662
isE	-14663
arms	-14664
rent	-14665
credentials	-14666
▁StackTrace	-14667
▁Structured	-14668
▁significant	-14669
getSpec	-14670
InjectorAction	-14671
Busy	-14672
COUN	-14673
utoff	-14674
▁saml	-14675
ems	-14676
endEvent	-14677
▁however	-14678
▁rowIndex	-14679
Aux	-14680
}")	-14681
Fallback	-14682
▁reduced	-14683
TypeElement	-14684
▁resourceType	-14685
================	-14686
▁-(	-14687
Throws	-14688
▁Credentials	-14689
Fee	-14690
git	-14691
hcp	-14692
▁Disk	-14693
Caught	-14694
▁1000)	-14695
▁third	-14696
ChangedListener	-14697
▁unused	-14698
NDI	-14699
[0]))	-14700
▁objs	-14701
▁getInput	-14702
▁produced	-14703
▁skill	-14704
▁getInt	-14705
Immediate	-14706
addHeader	-14707
Datatype	-14708
▁skipping	-14709
isInterface	-14710
▁AccessControl	-14711
UME	-14712
igible	-14713
Streaming	-14714
CRL	-14715
▁AWT	-14716
▁toBe	-14717
populate	-14718
threshold	-14719
▁ty	-14720
usion	-14721
▁feat	-14722
support	-14723
INTERFACE	-14724
▁IR	-14725
projectId	-14726
▁replaces	-14727
serializer	-14728
XXX	-14729
PART	-14730
▁Jdbc	-14731
▁slow	-14732
▁Nb	-14733
resolver	-14734
▁getBase	-14735
getDuration	-14736
EO	-14737
▁getT	-14738
ARM	-14739
detect	-14740
ucleus	-14741
▁Analysis	-14742
comparator	-14743
Crypto	-14744
▁sorting	-14745
DArray	-14746
▁choices	-14747
ALPH	-14748
getWork	-14749
Receives	-14750
TopLevel	-14751
Singleton	-14752
▁keywords	-14753
▁correlation	-14754
▁**	-14755
Reload	-14756
▁nodeList	-14757
Jvm	-14758
Outcome	-14759
Hop	-14760
Road	-14761
enalty	-14762
▁ASCII	-14763
▁loads	-14764
ColumnNames	-14765
getQualifiedName	-14766
accountName	-14767
getAnnotations	-14768
▁adj	-14769
▁lbl	-14770
PrimKey	-14771
writing	-14772
Skipping	-14773
getPointer	-14774
bedPane	-14775
▁decrypt	-14776
Snapshots	-14777
IGIN	-14778
▁Maven	-14779
Deliver	-14780
Toolbar	-14781
▁accordingly	-14782
Oper	-14783
▁newFile	-14784
▁baseName	-14785
▁newArray	-14786
▁OFF	-14787
▁Play	-14788
Concat	-14789
recycle	-14790
▁predicates	-14791
▁distributed	-14792
▁initializer	-14793
CONTACT	-14794
SKIP	-14795
▁Once	-14796
▁UPDATE	-14797
CHARACTER	-14798
getRender	-14799
PathVariable	-14800
PropertyType	-14801
getNextSibling	-14802
4()	-14803
kill	-14804
AXIS	-14805
canRead	-14806
getFrame	-14807
cceeded	-14808
▁availability	-14809
▁functionality	-14810
▁messageContext	-14811
[0-	-14812
ptime	-14813
Realtime	-14814
bytesRead	-14815
FieldNames	-14816
front	-14817
▁DATE	-14818
Wave	-14819
toMap	-14820
nextFloat	-14821
▁updateChildren	-14822
▁nf	-14823
walk	-14824
▁led	-14825
▁legal	-14826
getGrid	-14827
▁Syntax	-14828
▁testCase	-14829
FileReader	-14830
[++	-14831
TERMIN	-14832
erated	-14833
OrderBy	-14834
▁manually	-14835
▁attempting	-14836
4(	-14837
▁13	-14838
▁jc	-14839
ifetime	-14840
▁appName	-14841
two	-14842
000,	-14843
▁languages	-14844
TypeBinding	-14845
▁201	-14846
mlink	-14847
Combin	-14848
UsageProto	-14849
SecurityGroups	-14850
CollectionUtils	-14851
000)	-14852
▁0),	-14853
▁resume	-14854
_1);	-14855
▁Dot	-14856
ENDED	-14857
power	-14858
contracts	-14859
isRunning	-14860
Failures	-14861
EA	-14862
Jid	-14863
SCAPE	-14864
▁bundles	-14865
▁removal	-14866
▁dateTime	-14867
▁NoSuchAlgorithm	-14868
-2	-14869
cg	-14870
MLE	-14871
TLS	-14872
Cube	-14873
isOn	-14874
some	-14875
SECTION	-14876
destOffset	-14877
▁DecimalFormat	-14878
Fund	-14879
annable	-14880
addParameter	-14881
▁potentially	-14882
Packed	-14883
▁iface	-14884
MED	-14885
ubrid	-14886
liferay	-14887
▁naming	-14888
Interpolator	-14889
▁bands	-14890
Gallery	-14891
indexes	-14892
▁manage	-14893
FileType	-14894
▁reasons	-14895
PhoneNumber	-14896
izationException	-14897
dv	-14898
▁nanos	-14899
▁6,	-14900
IdSet	-14901
black	-14902
▁atoms	-14903
▁getUn	-14904
ToIndex	-14905
ndiName	-14906
▁cleared	-14907
JR	-14908
pline	-14909
▁Raster	-14910
▁student	-14911
▁schemaName	-14912
NoSuchAlgorithm	-14913
CU	-14914
LOT	-14915
MID	-14916
ees	-14917
rer	-14918
▁Retry	-14919
iid	-14920
=").	-14921
▁Case	-14922
EndIndex	-14923
Grouping	-14924
Suggestion	-14925
▁calculation	-14926
pus	-14927
rv	-14928
▁1],	-14929
('.',	-14930
▁2.0;	-14931
▁URLs	-14932
Always	-14933
Signing	-14934
▁Formula	-14935
ExistsException	-14936
Shown	-14937
▁lease	-14938
▁Errors	-14939
▁consist	-14940
43	-14941
▁5;.	-14942
▁Email	-14943
authority	-14944
▁velocity	-14945
▁upperBound	-14946
cho	-14947
▁FLAG	-14948
▁situ	-14949
Queues	-14950
▁Ip	-14951
▁plane	-14952
▁stand	-14953
Selects	-14954
▁domains	-14955
▁adjacent	-14956
cw	-14957
Hashes	-14958
Wallet	-14959
▁Compiler	-14960
▁Launcher	-14961
▁CommandLine	-14962
1()	-14963
Did	-14964
FRAG	-14965
FromSystem	-14966
AMS	-14967
(0)).	-14968
oning	-14969
getStore	-14970
TCP	-14971
▁Ab	-14972
▁clicked	-14973
▁namespaceName	-14974
_1_0	-14975
itect	-14976
layers	-14977
112	-14978
Challenge	-14979
Substitution	-14980
RequestMapping	-14981
setX	-14982
▁JPA	-14983
PoolSize	-14984
Committed	-14985
Protected	-14986
EditorPart	-14987
Ctrl	-14988
INCLUDE	-14989
iliation	-14990
Configure	-14991
setContentType	-14992
▁grp	-14993
▁diffs	-14994
enchmark	-14995
▁IPv	-14996
popup	-14997
Rating	-14998
▁Trust	-14999
▁Bukkit	-15000
Keywords	-15001
celerator	-15002
▁Persistent	-15003
▁attachments	-15004
Ofs	-15005
CDATA	-15006
▁Mojo	-15007
stable	-15008
▁Remove	-15009
Indirect	-15010
Provided	-15011
▁Canvas	-15012
Effective	-15013
SYM	-15014
Ascii	-15015
▁Found	-15016
▁mView	-15017
▁sigma	-15018
substit	-15019
PoolName	-15020
getProduct	-15021
▁initializes	-15022
05	-15023
6;	-15024
ANK	-15025
Ejb	-15026
▁oct	-15027
())).	-15028
▁Some	-15029
Assigns	-15030
getConf	-15031
▁Intern	-15032
ListWith	-15033
Libraries	-15034
Authorized	-15035
apps	-15036
▁GRO	-15037
rosst	-15038
aunched	-15039
▁Associ	-15040
getBuild	-15041
CodePoint	-15042
Messaging	-15043
LON	-15044
HASH	-15045
TICLE	-15046
Bundles	-15047
Picture	-15048
▁produces	-15049
ApiResponse	-15050
IDS	-15051
lop	-15052
toSet	-15053
▁"/";	-15054
▁CONT	-15055
▁ping	-15056
▁Usage	-15057
[...]
